<pad>	0
<unk>	0
<s>	0
</s>	0
er	-0
in	-1
at	-2
es	-3
en	-4
on	-5
▁a	-6
ent	-7
or	-8
▁s	-9
is	-10
ion	-11
▁t	-12
ing	-13
it	-14
re	-15
▁c	-16
▁p	-17
▁A	-18
ec	-19
ser	-20
al	-21
nd	-22
▁U	-23
ic	-24
▁W	-25
▁in	-26
▁f	-27
▁is	-28
gent	-29
▁User	-30
▁Agent	-31
▁d	-32
hat	-33
ation	-34
▁What	-35
ro	-36
▁and	-37
ed	-38
ac	-39
▁m	-40
▁e	-41
et	-42
ut	-43
an	-44
il	-45
lo	-46
ur	-47
▁b	-48
▁re	-49
▁I	-50
▁ex	-51
as	-52
ack	-53
om	-54
ar	-55
ab	-56
us	-57
ess	-58
ect	-59
ity	-60
em	-61
ers	-62
ul	-63
▁for	-64
id	-65
▁to	-66
▁w	-67
▁S	-68
▁It	-69
▁v	-70
▁o	-71
▁th	-72
▁l	-73
est	-74
ies	-75
iv	-76
im	-77
od	-78
un	-79
▁ac	-80
st	-81
tack	-82
el	-83
pl	-84
urity	-85
▁h	-86
pt	-87
▁pro	-88
ecurity	-89
▁r	-90
▁en	-91
▁com	-92
if	-93
ection	-94
ce	-95
▁at	-96
plo	-97
ication	-98
am	-99
ig	-100
ol	-101
wor	-102
ad	-103
▁T	-104
ner	-105
▁con	-106
▁security	-107
cess	-108
qu	-109
▁attack	-110
ain	-111
▁C	-112
ke	-113
ploit	-114
▁n	-115
nerab	-116
ulnerab	-117
▁or	-118
▁int	-119
▁sc	-120
▁D	-121
▁tr	-122
ag	-123
ts	-124
ith	-125
ulnerabil	-126
ial	-127
erv	-128
ud	-129
▁inc	-130
eg	-131
le	-132
▁dat	-133
ow	-134
ug	-135
ate	-136
esting	-137
for	-138
yst	-139
▁serv	-140
▁access	-141
▁exploit	-142
▁vulnerabil	-143
ass	-144
ystem	-145
▁H	-146
ure	-147
▁with	-148
iz	-149
ities	-150
▁of	-151
work	-152
▁system	-153
and	-154
▁st	-155
ive	-156
▁aut	-157
▁P	-158
rom	-159
ates	-160
▁us	-161
ecut	-162
ement	-163
ly	-164
ens	-165
▁data	-166
ot	-167
ugh	-168
rough	-169
▁through	-170
ct	-171
▁incl	-172
nal	-173
▁execut	-174
▁inj	-175
ds	-176
▁by	-177
etwork	-178
ode	-179
ver	-180
▁includ	-181
▁de	-182
▁im	-183
▁fil	-184
▁man	-185
tr	-186
▁R	-187
ment	-188
▁network	-189
▁un	-190
▁cont	-191
ch	-192
▁M	-193
ire	-194
form	-195
ys	-196
ike	-197
▁det	-198
▁ap	-199
▁the	-200
▁testing	-201
▁u	-202
▁pr	-203
ay	-204
▁cre	-205
▁injection	-206
▁code	-207
▁comp	-208
▁like	-209
▁vulnerabilities	-210
ap	-211
he	-212
▁res	-213
ident	-214
▁g	-215
abl	-216
isc	-217
vid	-218
▁are	-219
▁mal	-220
ical	-221
▁comm	-222
▁O	-223
ous	-224
ter	-225
▁requ	-226
▁scan	-227
plication	-228
ff	-229
▁ad	-230
▁servic	-231
se	-232
▁X	-233
▁B	-234
are	-235
▁on	-236
▁we	-237
▁systems	-238
ir	-239
po	-240
ell	-241
ions	-242
ning	-243
▁provid	-244
ip	-245
ry	-246
ss	-247
▁lo	-248
ting	-249
▁anal	-250
▁auth	-251
acking	-252
ential	-253
oc	-254
um	-255
▁al	-256
ence	-257
▁application	-258
ind	-259
per	-260
ware	-261
▁rec	-262
out	-263
▁ch	-264
ations	-265
av	-266
act	-267
cal	-268
▁rem	-269
romis	-270
▁attacks	-271
▁compromis	-272
rypt	-273
▁The	-274
▁priv	-275
▁inter	-276
ici	-277
pon	-278
ileg	-279
▁pre	-280
▁user	-281
SS	-282
▁N	-283
rol	-284
▁pass	-285
dential	-286
▁exploits	-287
▁privileg	-288
▁E	-289
ech	-290
vent	-291
▁ident	-292
▁detection	-293
TP	-294
fig	-295
get	-296
low	-297
▁cr	-298
▁es	-299
▁po	-300
able	-301
ized	-302
▁execution	-303
QL	-304
th	-305
ub	-306
ary	-307
our	-308
ust	-309
▁be	-310
▁ph	-311
▁sp	-312
ated	-313
over	-314
▁pat	-315
▁from	-316
▁authent	-317
formation	-318
▁provides	-319
▁credential	-320
ak	-321
ri	-322
▁do	-323
▁mod	-324
▁web	-325
▁escal	-326
▁SS	-327
▁wh	-328
ript	-329
ables	-330
icious	-331
▁privilege	-332
▁information	-333
NS	-334
▁L	-335
ish	-336
▁At	-337
reat	-338
figur	-339
▁Attack	-340
▁respon	-341
ors	-342
ory	-343
▁sh	-344
echn	-345
load	-346
▁enc	-347
▁imp	-348
▁per	-349
▁tar	-350
▁target	-351
▁identif	-352
▁include	-353
▁scanning	-354
▁escalation	-355
ks	-356
▁V	-357
ail	-358
ash	-359
ine	-360
ram	-361
▁HT	-362
ased	-363
▁DNS	-364
▁act	-365
irect	-366
▁disc	-367
▁control	-368
▁passwor	-369
▁without	-370
▁Attackers	-371
ex	-372
ou	-373
ov	-374
age	-375
ces	-376
ist	-377
ols	-378
▁par	-379
▁request	-380
▁malicious	-381
▁vulnerability	-382
▁authentication	-383
ach	-384
nel	-385
ance	-386
pass	-387
▁SQL	-388
▁XSS	-389
▁prot	-390
▁uses	-391
ans	-392
ear	-393
put	-394
ater	-395
ects	-396
▁How	-397
▁val	-398
▁HTTP	-399
▁into	-400
ib	-401
of	-402
ign	-403
ote	-404
▁cl	-405
ages	-406
▁ass	-407
▁They	-408
▁file	-409
▁autom	-410
▁bypass	-411
▁threat	-412
▁prevent	-413
aff	-414
ang	-415
ict	-416
iss	-417
uth	-418
▁ca	-419
ysis	-420
affic	-421
ishing	-422
▁traffic	-423
AS	-424
op	-425
▁G	-426
▁k	-427
▁y	-428
oun	-429
▁ke	-430
auth	-431
enet	-432
▁pay	-433
▁red	-434
esses	-435
ration	-436
▁techn	-437
agement	-438
▁service	-439
▁analysis	-440
▁services	-441
▁J	-442
edi	-443
hod	-444
ick	-445
iqu	-446
oll	-447
pen	-448
ific	-449
ines	-450
ipul	-451
sure	-452
▁def	-453
based	-454
omain	-455
▁files	-456
▁remote	-457
▁command	-458
▁manipul	-459
enetration	-460
all	-461
fer	-462
ort	-463
own	-464
▁add	-465
▁met	-466
▁use	-467
▁you	-468
ecure	-469
ments	-470
orized	-471
▁input	-472
▁shell	-473
▁script	-474
▁encrypt	-475
▁credentials	-476
ard	-477
ile	-478
ite	-479
ple	-480
ual	-481
▁In	-482
ures	-483
▁acc	-484
▁des	-485
▁leg	-486
▁log	-487
ensit	-488
▁users	-489
ensitive	-490
▁enables	-491
▁malware	-492
▁payload	-493
▁servers	-494
up	-495
ake	-496
eam	-497
▁ag	-498
▁an	-499
▁le	-500
▁eng	-501
▁ins	-502
▁mov	-503
ating	-504
▁team	-505
▁modif	-506
▁patch	-507
ization	-508
▁sensitive	-509
▁management	-510
▁applications	-511
▁exploitation	-512
og	-513
▁F	-514
ide	-515
▁Ex	-516
▁qu	-517
▁Met	-518
ected	-519
iscon	-520
▁expo	-521
▁hash	-522
▁impl	-523
ession	-524
▁analy	-525
jacking	-526
▁unauth	-527
ru	-528
ase	-529
end	-530
one	-531
ult	-532
urp	-533
▁AP	-534
▁ob	-535
▁pl	-536
▁ro	-537
▁dev	-538
▁dis	-539
▁ent	-540
▁inf	-541
ering	-542
▁Burp	-543
▁capt	-544
ateral	-545
▁accoun	-546
▁miscon	-547
▁attacker	-548
▁movement	-549
figuration	-550
▁implement	-551
▁compromised	-552
▁unauthorized	-553
RF	-554
we	-555
ert	-556
ime	-557
ont	-558
ost	-559
▁fi	-560
cept	-561
etwe	-562
fore	-563
itim	-564
▁ind	-565
emory	-566
▁test	-567
etween	-568
▁trust	-569
▁valid	-570
itimate	-571
▁before	-572
▁between	-573
▁legitimate	-574
▁penetration	-575
ue	-576
onn	-577
▁em	-578
ases	-579
rame	-580
▁bro	-581
▁wor	-582
▁pers	-583
▁datab	-584
▁trans	-585
▁analyz	-586
▁memory	-587
▁lateral	-588
▁includes	-589
▁networks	-590
▁password	-591
▁phishing	-592
▁compromise	-593
▁identifies	-594
ok	-595
yb	-596
yn	-597
yp	-598
eal	-599
ior	-600
led	-601
log	-602
rap	-603
ute	-604
▁ev	-605
ross	-606
umer	-607
unct	-608
vers	-609
▁API	-610
▁but	-611
▁oth	-612
▁run	-613
ictim	-614
iques	-615
▁keys	-616
▁oper	-617
▁allow	-618
▁funct	-619
tration	-620
▁cracking	-621
▁requests	-622
▁response	-623
▁(	-624
fil	-625
ics	-626
ows	-627
▁St	-628
▁bl	-629
▁hi	-630
amet	-631
ands	-632
ellig	-633
ource	-634
overy	-635
▁coll	-636
▁spec	-637
▁when	-638
ically	-639
indows	-640
losure	-641
▁direct	-642
▁domain	-643
▁perform	-644
▁process	-645
▁targets	-646
▁threats	-647
elligence	-648
▁controls	-649
▁including	-650
▁disclosure	-651
ux	-652
▁z	-653
ace	-654
ead	-655
ely	-656
ero	-657
ets	-658
omm	-659
ubl	-660
ains	-661
ists	-662
ites	-663
orts	-664
raph	-665
▁tok	-666
erial	-667
ocial	-668
usion	-669
▁addr	-670
▁conn	-671
▁over	-672
▁pent	-673
ecting	-674
ources	-675
▁exfil	-676
▁frame	-677
▁tools	-678
▁commun	-679
▁victim	-680
▁Windows	-681
▁paramet	-682
▁session	-683
▁Security	-684
▁incident	-685
ML	-686
RL	-687
ge	-688
ps	-689
▁K	-690
ASP	-691
ast	-692
ger	-693
her	-694
int	-695
ses	-696
uff	-697
▁OW	-698
▁ar	-699
▁as	-700
▁fl	-701
▁kn	-702
aiss	-703
ient	-704
ules	-705
▁can	-706
▁ext	-707
▁inv	-708
▁rep	-709
ainst	-710
aries	-711
earch	-712
oning	-713
ublic	-714
▁find	-715
▁quer	-716
▁stor	-717
▁weak	-718
▁OWASP	-719
▁other	-720
▁recor	-721
istence	-722
onnaiss	-723
▁engine	-724
▁enumer	-725
▁public	-726
▁against	-727
▁payloads	-728
▁hijacking	-729
▁intercept	-730
▁passwords	-731
onnaissance	-732
▁intelligence	-733
▁communication	-734
ie	-735
uz	-736
cur	-737
enc	-738
hav	-739
its	-740
map	-741
uzz	-742
▁ab	-743
▁co	-744
▁se	-745
ices	-746
▁URL	-747
▁cyb	-748
▁lim	-749
▁mon	-750
▁ris	-751
▁str	-752
erson	-753
ility	-754
ional	-755
▁open	-756
aining	-757
icated	-758
▁behav	-759
ections	-760
▁method	-761
▁server	-762
▁tokens	-763
▁capture	-764
▁creates	-765
▁scripts	-766
▁deserial	-767
▁imperson	-768
▁internal	-769
▁attackers	-770
▁framework	-771
▁pentesting	-772
▁engineering	-773
▁enumeration	-774
▁exfiltration	-775
af	-776
ng	-777
ra	-778
ata	-779
bit	-780
erp	-781
min	-782
ues	-783
▁OS	-784
▁er	-785
▁oc	-786
iple	-787
nels	-788
olog	-789
rute	-790
side	-791
▁reg	-792
▁sim	-793
▁typ	-794
▁ver	-795
cture	-796
▁SSRF	-797
▁back	-798
▁cert	-799
▁chan	-800
▁head	-801
▁mess	-802
▁sign	-803
▁work	-804
ternal	-805
▁chang	-806
▁compl	-807
▁monit	-808
▁occur	-809
▁steal	-810
▁common	-811
▁proper	-812
▁protoc	-813
▁requir	-814
▁social	-815
▁queries	-816
▁behavior	-817
▁specific	-818
figurations	-819
▁encryption	-820
▁techniques	-821
▁reconnaissance	-822
LL	-823
aw	-824
bo	-825
ade	-826
ant	-827
ava	-828
ced	-829
ken	-830
▁CV	-831
▁IP	-832
▁Re	-833
ards	-834
ends	-835
ense	-836
flow	-837
rary	-838
▁DLL	-839
▁SSH	-840
▁Use	-841
▁cor	-842
▁fix	-843
▁loc	-844
▁mak	-845
▁rel	-846
▁sub	-847
▁sup	-848
andsh	-849
ative	-850
cript	-851
▁Comm	-852
▁Cont	-853
▁Java	-854
▁down	-855
▁mult	-856
▁path	-857
▁pois	-858
▁that	-859
ograph	-860
uzzing	-861
▁activ	-862
▁brute	-863
▁email	-864
▁using	-865
▁handsh	-866
▁modify	-867
▁search	-868
▁accounts	-869
▁channels	-870
▁external	-871
▁messages	-872
▁prevents	-873
▁addresses	-874
▁Vulnerabil	-875
▁validation	-876
▁manipulation	-877
▁configuration	-878
▁deserialization	-879
10	-880
aws	-881
gor	-882
idd	-883
loc	-884
oft	-885
ons	-886
ore	-887
ves	-888
vir	-889
▁CS	-890
▁ID	-891
▁Th	-892
▁av	-893
▁su	-894
acks	-895
aint	-896
empl	-897
ible	-898
ithm	-899
ives	-900
loud	-901
usin	-902
▁SSL	-903
▁XML	-904
▁dec	-905
▁gat	-906
▁sch	-907
oding	-908
viron	-909
▁call	-910
▁cust	-911
▁does	-912
▁extr	-913
▁port	-914
▁than	-915
▁time	-916
▁used	-917
itical	-918
▁admin	-919
▁enabl	-920
▁flaws	-921
▁force	-922
▁simul	-923
gorithm	-924
ography	-925
usiness	-926
▁advers	-927
▁forens	-928
▁occurs	-929
▁contain	-930
▁environ	-931
▁patches	-932
▁records	-933
ulnerable	-934
▁analyzes	-935
▁executes	-936
▁identify	-937
▁insecure	-938
▁multiple	-939
▁handshake	-940
▁responses	-941
▁persistence	-942
▁modification	-943
ID	-944
IT	-945
XE	-946
fl	-947
ob	-948
▁2	-949
ame	-950
ari	-951
egr	-952
ify	-953
oid	-954
ras	-955
the	-956
tru	-957
use	-958
▁WP	-959
▁bo	-960
▁gu	-961
acts	-962
edia	-963
igin	-964
inux	-965
izes	-966
less	-967
olic	-968
ower	-969
poof	-970
tern	-971
ters	-972
wser	-973
▁XXE	-974
▁app	-975
▁bre	-976
▁dif	-977
▁err	-978
▁tun	-979
aches	-980
ansom	-981
itial	-982
iting	-983
pload	-984
sites	-985
▁comb	-986
▁host	-987
▁inst	-988
▁prox	-989
▁root	-990
domain	-991
neling	-992
rastru	-993
ysical	-994
▁arbit	-995
▁crypt	-996
▁event	-997
▁impro	-998
▁indic	-999
▁maint	-1000
▁media	-1001
▁spoof	-1002
▁tests	-1003
▁while	-1004
emplate	-1005
oftware	-1006
▁across	-1007
▁assess	-1008
▁client	-1009
▁extens	-1010
▁impact	-1011
▁remedi	-1012
▁secure	-1013
atically	-1014
▁account	-1015
▁browser	-1016
▁devices	-1017
▁fuzzing	-1018
ification	-1019
mentation	-1020
▁business	-1021
▁certific	-1022
▁database	-1023
▁redirect	-1024
▁spoofing	-1025
▁websites	-1026
ersecurity	-1027
▁algorithm	-1028
▁arbitrary	-1029
▁databases	-1030
▁infrastru	-1031
▁poisoning	-1032
▁protocols	-1033
▁tunneling	-1034
▁vulnerable	-1035
▁connections	-1036
▁Vulnerability	-1037
▁infrastructure	-1038
AC	-1039
IS	-1040
RE	-1041
ax	-1042
do	-1043
ty	-1044
▁j	-1045
AST	-1046
ice	-1047
igh	-1048
ism	-1049
net	-1050
ocu	-1051
ord	-1052
par	-1053
tur	-1054
vel	-1055
▁10	-1056
▁Ap	-1057
▁CO	-1058
▁De	-1059
▁SM	-1060
▁SO	-1061
▁To	-1062
▁We	-1063
ames	-1064
ecre	-1065
ency	-1066
estr	-1067
fter	-1068
gram	-1069
hell	-1070
hods	-1071
ings	-1072
ique	-1073
irew	-1074
istr	-1075
ivid	-1076
ping	-1077
rupt	-1078
ynam	-1079
▁MIT	-1080
▁Pro	-1081
▁Res	-1082
▁bin	-1083
▁est	-1084
▁ker	-1085
▁out	-1086
adata	-1087
ators	-1088
ledge	-1089
oring	-1090
oting	-1091
ution	-1092
▁Nmap	-1093
▁Open	-1094
▁SQLi	-1095
▁cook	-1096
▁docu	-1097
▁fiel	-1098
▁gath	-1099
▁know	-1100
▁logs	-1101
▁perm	-1102
▁post	-1103
▁risk	-1104
▁supp	-1105
▁tool	-1106
ective	-1107
▁Linux	-1108
▁Power	-1109
▁about	-1110
▁blind	-1111
▁expos	-1112
▁logic	-1113
▁ports	-1114
▁retur	-1115
▁sends	-1116
exploit	-1117
ibility	-1118
irewall	-1119
▁backdo	-1120
▁establ	-1121
▁hashes	-1122
▁integr	-1123
▁signat	-1124
▁upload	-1125
▁Methods	-1126
▁Testing	-1127
▁actions	-1128
▁content	-1129
▁initial	-1130
▁program	-1131
▁running	-1132
▁victims	-1133
▁bypasses	-1134
▁commands	-1135
▁critical	-1136
▁entities	-1137
▁metadata	-1138
▁overflow	-1139
▁patching	-1140
▁software	-1141
▁automated	-1142
▁discovery	-1143
▁encrypted	-1144
▁forensics	-1145
▁knowledge	-1146
▁parameter	-1147
▁resources	-1148
▁technical	-1149
▁methodolog	-1150
exploitation	-1151
▁manipulates	-1152
▁environments	-1153
01	-1154
CK	-1155
ES	-1156
SO	-1157
YN	-1158
oS	-1159
pd	-1160
arv	-1161
cts	-1162
dit	-1163
elo	-1164
erb	-1165
gan	-1166
hip	-1167
iew	-1168
ull	-1169
und	-1170
▁Sc	-1171
▁Un	-1172
▁it	-1173
aces	-1174
alse	-1175
asks	-1176
atch	-1177
cing	-1178
code	-1179
egan	-1180
elop	-1181
fers	-1182
ging	-1183
icks	-1184
ider	-1185
ints	-1186
ling	-1187
ples	-1188
▁SYN	-1189
▁Top	-1190
▁all	-1191
▁dam	-1192
▁den	-1193
▁dum	-1194
▁end	-1195
▁hol	-1196
▁iss	-1197
▁obj	-1198
Shell	-1199
avers	-1200
aying	-1201
ccess	-1202
ester	-1203
uring	-1204
▁APIs	-1205
▁Kerb	-1206
▁URLs	-1207
▁bloc	-1208
▁hard	-1209
▁lear	-1210
▁pack	-1211
▁plat	-1212
▁them	-1213
▁zone	-1214
Script	-1215
ensive	-1216
inting	-1217
nesses	-1218
▁Metas	-1219
▁Tools	-1220
▁after	-1221
▁appro	-1222
▁avoid	-1223
▁based	-1224
▁click	-1225
▁cloud	-1226
▁cover	-1227
▁error	-1228
▁local	-1229
▁pages	-1230
▁point	-1231
▁restr	-1232
▁secre	-1233
▁stand	-1234
▁tasks	-1235
▁teams	-1236
▁types	-1237
aversal	-1238
ilities	-1239
▁Common	-1240
▁author	-1241
▁broken	-1242
▁custom	-1243
▁design	-1244
▁enable	-1245
▁fields	-1246
▁header	-1247
▁kernel	-1248
▁making	-1249
▁ransom	-1250
▁return	-1251
▁shells	-1252
ionality	-1253
▁Exploit	-1254
▁Kerbero	-1255
▁changes	-1256
▁cookies	-1257
▁defense	-1258
▁develop	-1259
▁execute	-1260
▁extract	-1261
▁modules	-1262
▁provide	-1263
▁require	-1264
▁storage	-1265
▁trusted	-1266
▁assesses	-1267
▁combines	-1268
▁download	-1269
▁enabling	-1270
▁exposure	-1271
▁firewall	-1272
▁physical	-1273
▁platform	-1274
▁requires	-1275
▁functions	-1276
▁inclusion	-1277
▁processes	-1278
▁scripting	-1279
▁traversal	-1280
eganography	-1281
▁JavaScript	-1282
▁Metasploit	-1283
▁activities	-1284
▁frameworks	-1285
▁operations	-1286
▁parameters	-1287
▁weaknesses	-1288
▁impersonate	-1289
▁remediation	-1290
▁cybersecurity	-1291
▁functionality	-1292
AF	-1293
AP	-1294
CP	-1295
DP	-1296
Fi	-1297
IN	-1298
RP	-1299
TL	-1300
by	-1301
ep	-1302
gr	-1303
UID	-1304
aft	-1305
ark	-1306
bow	-1307
com	-1308
ext	-1309
ful	-1310
gre	-1311
iFi	-1312
ill	-1313
ize	-1314
old	-1315
oph	-1316
ply	-1317
pth	-1318
ran	-1319
rel	-1320
ugg	-1321
urr	-1322
wit	-1323
▁Bl	-1324
▁Go	-1325
▁Su	-1326
▁sn	-1327
abor	-1328
ails	-1329
angu	-1330
apab	-1331
edul	-1332
erpr	-1333
greg	-1334
igit	-1335
inds	-1336
medi	-1337
midd	-1338
play	-1339
raud	-1340
read	-1341
time	-1342
trib	-1343
ward	-1344
▁ARP	-1345
▁CVE	-1346
▁WAF	-1347
▁Web	-1348
▁att	-1349
▁box	-1350
▁exp	-1351
▁map	-1352
▁min	-1353
▁tim	-1354
▁upd	-1355
andom	-1356
anism	-1357
ately	-1358
ctive	-1359
ended	-1360
ently	-1361
erpre	-1362
iance	-1363
istry	-1364
iving	-1365
obile	-1366
ordin	-1367
trust	-1368
verse	-1369
witch	-1370
▁CSRF	-1371
▁Tick	-1372
▁blue	-1373
▁caus	-1374
▁cent	-1375
▁evid	-1376
▁exam	-1377
▁fing	-1378
▁guid	-1379
▁intr	-1380
▁isol	-1381
▁mech	-1382
▁more	-1383
▁read	-1384
▁vend	-1385
ainbow	-1386
alized	-1387
eduled	-1388
elines	-1389
igital	-1390
irects	-1391
issing	-1392
isting	-1393
middle	-1394
orting	-1395
ynamic	-1396
▁HTTPS	-1397
▁Suite	-1398
▁Techn	-1399
▁capab	-1400
▁chain	-1401
▁craft	-1402
▁cross	-1403
▁cyber	-1404
▁endpo	-1405
▁evade	-1406
▁false	-1407
▁fraud	-1408
▁inser	-1409
▁known	-1410
▁level	-1411
▁organ	-1412
▁paths	-1413
▁proxy	-1414
▁rules	-1415
▁sever	-1416
ireless	-1417
ivoting	-1418
trusted	-1419
▁Direct	-1420
▁Respon	-1421
▁aggreg	-1422
▁allows	-1423
▁condit	-1424
▁damage	-1425
▁denial	-1426
▁differ	-1427
▁immedi	-1428
▁improv	-1429
▁issues	-1430
▁limits	-1431
▁parser	-1432
▁source	-1433
▁tricks	-1434
erpreter	-1435
▁engines	-1436
▁vendors	-1437
ationship	-1438
▁evidence	-1439
▁fingerpr	-1440
▁protects	-1441
▁recovery	-1442
▁restrict	-1443
▁template	-1444
▁transfer	-1445
▁adversary	-1446
▁automates	-1447
▁bypassing	-1448
▁detecting	-1449
▁directory	-1450
▁establish	-1451
▁incidents	-1452
▁mechanism	-1453
▁redirects	-1454
▁scheduled	-1455
▁signature	-1456
▁subdomain	-1457
▁transfers	-1458
▁untrusted	-1459
egmentation	-1460
▁PowerShell	-1461
▁automation	-1462
▁collection	-1463
▁manipulate	-1464
▁monitoring	-1465
▁Application	-1466
▁Meterpreter	-1467
▁development	-1468
▁executables	-1469
▁capabilities	-1470
▁relationship	-1471
▁automatically	-1472
AN	-1473
OM	-1474
OP	-1475
RS	-1476
TT	-1477
cl	-1478
cr	-1479
wr	-1480
▁Z	-1481
INT	-1482
als	-1483
day	-1484
eck	-1485
emb	-1486
fus	-1487
gue	-1488
ich	-1489
iff	-1490
ili	-1491
inu	-1492
nec	-1493
omp	-1494
ong	-1495
oot	-1496
orm	-1497
ros	-1498
sit	-1499
ten	-1500
▁Cl	-1501
▁JW	-1502
▁Ph	-1503
▁Sp	-1504
▁Wh	-1505
▁fe	-1506
▁if	-1507
▁ne	-1508
▁tw	-1509
▁vs	-1510
ache	-1511
ades	-1512
alid	-1513
atic	-1514
ault	-1515
empt	-1516
erst	-1517
face	-1518
fusc	-1519
gery	-1520
ircr	-1521
ones	-1522
onst	-1523
ploy	-1524
reen	-1525
site	-1526
ular	-1527
umes	-1528
▁ATT	-1529
▁DOM	-1530
▁Hun	-1531
▁MAC	-1532
▁Rec	-1533
▁Red	-1534
▁Rem	-1535
▁SMB	-1536
▁WPA	-1537
▁bas	-1538
▁deb	-1539
▁eff	-1540
▁ens	-1541
▁key	-1542
▁one	-1543
▁spr	-1544
▁sur	-1545
▁und	-1546
▁vir	-1547
aging	-1548
aract	-1549
ction	-1550
ences	-1551
estig	-1552
ifies	-1553
olicy	-1554
olves	-1555
uable	-1556
uffer	-1557
urple	-1558
▁CORS	-1559
▁Coll	-1560
▁Pass	-1561
▁SUID	-1562
▁WiFi	-1563
▁conf	-1564
▁form	-1565
▁full	-1566
▁high	-1567
▁lock	-1568
▁mach	-1569
▁part	-1570
▁pres	-1571
▁rate	-1572
▁real	-1573
▁redu	-1574
▁rout	-1575
▁sequ	-1576
▁vari	-1577
▁zero	-1578
actics	-1579
ements	-1580
essary	-1581
iffing	-1582
inuous	-1583
itting	-1584
ophist	-1585
pected	-1586
source	-1587
uffing	-1588
▁addit	-1589
▁block	-1590
▁calls	-1591
▁centr	-1592
▁class	-1593
▁depth	-1594
▁fixes	-1595
▁langu	-1596
▁learn	-1597
▁least	-1598
▁names	-1599
▁obser	-1600
▁often	-1601
▁prior	-1602
▁refer	-1603
▁remov	-1604
▁risks	-1605
▁rogue	-1606
▁stack	-1607
▁unnec	-1608
cedures	-1609
erstand	-1610
ircrack	-1611
ividual	-1612
tribute	-1613
▁Active	-1614
▁Execut	-1615
▁Threat	-1616
▁Ticket	-1617
▁altern	-1618
▁chains	-1619
▁correl	-1620
▁detect	-1621
▁filter	-1622
▁inputs	-1623
▁manual	-1624
▁origin	-1625
▁phases	-1626
▁random	-1627
▁spread	-1628
▁switch	-1629
▁tables	-1630
▁tracks	-1631
▁values	-1632
aracters	-1633
▁Network	-1634
▁attempt	-1635
▁coordin	-1636
▁corrupt	-1637
▁detects	-1638
▁filters	-1639
▁forgery	-1640
▁hacking	-1641
▁headers	-1642
▁injects	-1643
▁machine	-1644
▁reverse	-1645
▁scanner	-1646
▁secrets	-1647
▁sources	-1648
▁stealth	-1649
▁success	-1650
▁updates	-1651
▁Kerberos	-1652
▁accesses	-1653
▁allowing	-1654
▁binaries	-1655
▁captures	-1656
▁directly	-1657
▁encoding	-1658
▁findings	-1659
▁investig	-1660
▁monitors	-1661
▁pivoting	-1662
▁registry	-1663
▁sniffing	-1664
▁spraying	-1665
▁stuffing	-1666
▁valuable	-1667
▁Directory	-1668
▁analyzing	-1669
▁backdoors	-1670
▁documents	-1671
▁executing	-1672
▁providing	-1673
▁requiring	-1674
▁shellcode	-1675
▁Techniques	-1676
▁additional	-1677
▁compliance	-1678
▁extensions	-1679
▁implements	-1680
▁individual	-1681
▁intercepts	-1682
▁privileges	-1683
▁procedures	-1684
▁ransomware	-1685
▁understand	-1686
ophisticated	-1687
▁Penetration	-1688
▁alternative	-1689
▁assessments	-1690
▁containment	-1691
▁unnecessary	-1692
▁certificates	-1693
▁verification	-1694
▁modifications	-1695
▁relationships	-1696
▁steganography	-1697
▁fingerprinting	-1698
),	-1699
-2	-1700
AD	-1701
CV	-1702
EP	-1703
bg	-1704
dl	-1705
du	-1706
eo	-1707
ft	-1708
ik	-1709
kn	-1710
os	-1711
▁3	-1712
CVE	-1713
IST	-1714
LAN	-1715
SON	-1716
TLS	-1717
VAS	-1718
ags	-1719
anc	-1720
art	-1721
cap	-1722
eap	-1723
inc	-1724
kit	-1725
ler	-1726
ock	-1727
ree	-1728
reh	-1729
rid	-1730
roj	-1731
tax	-1732
tex	-1733
udo	-1734
ule	-1735
umm	-1736
ups	-1737
van	-1738
yth	-1739
▁Ch	-1740
▁Or	-1741
▁dr	-1742
▁ef	-1743
▁ho	-1744
▁no	-1745
▁sm	-1746
Harv	-1747
ally	-1748
ator	-1749
aves	-1750
avig	-1751
axim	-1752
band	-1753
bose	-1754
ceed	-1755
cont	-1756
ener	-1757
ents	-1758
inks	-1759
ires	-1760
itel	-1761
like	-1762
lood	-1763
ming	-1764
ogle	-1765
ores	-1766
ound	-1767
tual	-1768
uble	-1769
uder	-1770
veal	-1771
ving	-1772
word	-1773
▁Def	-1774
▁IDs	-1775
▁Ins	-1776
▁JWT	-1777
▁Log	-1778
▁Mal	-1779
▁TCP	-1780
▁WPS	-1781
▁aux	-1782
▁dem	-1783
▁gad	-1784
▁gro	-1785
▁hun	-1786
▁lay	-1787
▁peo	-1788
▁pot	-1789
▁saf	-1790
▁sus	-1791
▁syn	-1792
▁vis	-1793
antly	-1794
arios	-1795
aster	-1796
eater	-1797
eless	-1798
essus	-1799
forts	-1800
hodan	-1801
idden	-1802
izing	-1803
known	-1804
ormal	-1805
ounty	-1806
overs	-1807
roken	-1808
terns	-1809
ulent	-1810
▁CVSS	-1811
▁File	-1812
▁JSON	-1813
▁MITM	-1814
▁NIST	-1815
▁SOAP	-1816
▁Test	-1817
▁VLAN	-1818
▁dest	-1819
▁fake	-1820
▁fast	-1821
▁forg	-1822
▁gran	-1823
▁hand	-1824
▁hole	-1825
▁hone	-1826
▁insp	-1827
▁lack	-1828
▁leak	-1829
▁less	-1830
▁load	-1831
▁many	-1832
▁ones	-1833
▁plug	-1834
▁poll	-1835
▁pred	-1836
▁refl	-1837
▁same	-1838
▁scen	-1839
▁summ	-1840
▁take	-1841
▁tick	-1842
▁unex	-1843
▁vers	-1844
▁view	-1845
active	-1846
assemb	-1847
icient	-1848
icking	-1849
iction	-1850
iliary	-1851
lowing	-1852
onents	-1853
rolled	-1854
thical	-1855
vanced	-1856
▁MITRE	-1857
▁OSINT	-1858
▁Valid	-1859
▁cache	-1860
▁callb	-1861
▁const	-1862
▁debug	-1863
▁doesn	-1864
▁enfor	-1865
▁finds	-1866
▁gains	-1867
▁hosts	-1868
▁legal	-1869
▁links	-1870
▁lists	-1871
▁makes	-1872
▁maxim	-1873
▁minim	-1874
▁model	-1875
▁navig	-1876
▁phase	-1877
▁polic	-1878
▁princ	-1879
▁schem	-1880
▁sites	-1881
▁strip	-1882
▁table	-1883
▁usage	-1884
▁which	-1885
▁wordl	-1886
ailable	-1887
atering	-1888
authent	-1889
texting	-1890
utation	-1891
▁Google	-1892
▁Nessus	-1893
▁SQLmap	-1894
▁Shodan	-1895
▁active	-1896
▁avoids	-1897
▁bounty	-1898
▁breach	-1899
▁buffer	-1900
▁change	-1901
▁downgr	-1902
▁entity	-1903
▁gadget	-1904
▁hidden	-1905
▁levels	-1906
▁normal	-1907
▁obfusc	-1908
▁people	-1909
▁person	-1910
▁recomm	-1911
▁record	-1912
▁replay	-1913
▁reveal	-1914
▁screen	-1915
▁steals	-1916
▁syntax	-1917
▁whitel	-1918
Security	-1919
izations	-1920
paration	-1921
▁Content	-1922
▁OpenVAS	-1923
▁address	-1924
▁complex	-1925
▁compreh	-1926
▁default	-1927
▁digital	-1928
▁dynamic	-1929
▁efforts	-1930
▁exposed	-1931
▁forward	-1932
▁gathers	-1933
▁hunting	-1934
▁inserts	-1935
▁insider	-1936
▁methods	-1937
▁missing	-1938
▁objects	-1939
▁parsers	-1940
▁passive	-1941
▁permiss	-1942
▁priorit	-1943
▁protect	-1944
▁rainbow	-1945
▁runtime	-1946
▁surface	-1947
▁tactics	-1948
▁tickets	-1949
▁verbose	-1950
Harvester	-1951
aborative	-1952
adication	-1953
ufficient	-1954
▁Aircrack	-1955
▁Validate	-1956
▁activity	-1957
▁advanced	-1958
▁attempts	-1959
▁breaches	-1960
▁collects	-1961
▁encrypts	-1962
▁exposing	-1963
▁fixation	-1964
▁guidance	-1965
▁identifi	-1966
▁identity	-1967
▁infected	-1968
▁internet	-1969
▁language	-1970
▁limiting	-1971
▁patterns	-1972
▁performs	-1973
▁policies	-1974
▁publicly	-1975
▁searches	-1976
▁severity	-1977
▁supports	-1978
▁takeover	-1979
▁wireless	-1980
controlled	-1981
▁Execution	-1982
▁auxiliary	-1983
▁disassemb	-1984
▁downloads	-1985
▁gathering	-1986
▁injecting	-1987
▁integrity	-1988
▁maintains	-1989
▁pollution	-1990
▁potential	-1991
▁reporting	-1992
▁scenarios	-1993
▁standards	-1994
▁technique	-1995
▁aggregates	-1996
▁approaches	-1997
▁assessment	-1998
▁authorized	-1999
▁components	-2000
▁conditions	-2001
▁continuous	-2002
▁correlates	-2003
▁distribute	-2004
▁exploiting	-2005
▁fraudulent	-2006
▁indicators	-2007
▁integrates	-2008
▁mechanisms	-2009
▁preventing	-2010
▁protection	-2011
▁unexpected	-2012
▁adversaries	-2013
▁centralized	-2014
▁certificate	-2015
▁coordinated	-2016
▁establishes	-2017
▁individuals	-2018
▁maintaining	-2019
▁methodology	-2020
▁implementing	-2021
▁segmentation	-2022
▁authorization	-2023
▁collaborative	-2024
▁comprehensive	-2025
▁methodologies	-2026
▁organizations	-2027
▁sophisticated	-2028
.0	-2029
44	-2030
70	-2031
:,	-2032
AM	-2033
CS	-2034
DR	-2035
Ex	-2036
FI	-2037
GP	-2038
HT	-2039
LM	-2040
NR	-2041
OD	-2042
PA	-2043
PN	-2044
SB	-2045
aC	-2046
ef	-2047
hn	-2048
pa	-2049
ve	-2050
yd	-2051
▁Q	-2052
EST	-2053
TES	-2054
aim	-2055
ams	-2056
ats	-2057
ave	-2058
box	-2059
cat	-2060
ean	-2061
eng	-2062
fic	-2063
hel	-2064
hie	-2065
ied	-2066
mpl	-2067
obs	-2068
oci	-2069
ody	-2070
ohn	-2071
ond	-2072
ool	-2073
ope	-2074
pst	-2075
rop	-2076
sEx	-2077
url	-2078
ypo	-2079
▁AS	-2080
▁Cr	-2081
▁En	-2082
▁GP	-2083
▁Gu	-2084
▁If	-2085
▁NS	-2086
▁Pr	-2087
▁Sh	-2088
▁el	-2089
▁vi	-2090
▁wr	-2091
7001	-2092
LMNR	-2093
adge	-2094
ailg	-2095
ampa	-2096
ange	-2097
anit	-2098
apid	-2099
ateg	-2100
aver	-2101
cape	-2102
conn	-2103
ding	-2104
ecks	-2105
efin	-2106
eler	-2107
hark	-2108
hash	-2109
hold	-2110
ides	-2111
ious	-2112
iper	-2113
ners	-2114
oSQL	-2115
omal	-2116
oriz	-2117
oted	-2118
pend	-2119
plic	-2120
reds	-2121
requ	-2122
rida	-2123
rols	-2124
term	-2125
tics	-2126
ured	-2127
usts	-2128
ydra	-2129
▁10?	-2130
▁CIS	-2131
▁Cre	-2132
▁DEP	-2133
▁ISO	-2134
▁Inc	-2135
▁Inj	-2136
▁Int	-2137
▁Man	-2138
▁Mod	-2139
▁NOP	-2140
▁Pre	-2141
▁Rip	-2142
▁Sol	-2143
▁Sub	-2144
▁Tok	-2145
▁USB	-2146
▁aff	-2147
▁ant	-2148
▁art	-2149
▁aud	-2150
▁bot	-2151
▁cop	-2152
▁del	-2153
▁dor	-2154
▁lar	-2155
▁lib	-2156
▁not	-2157
▁off	-2158
▁opt	-2159
▁rat	-2160
▁set	-2161
▁uns	-2162
ading	-2163
amper	-2164
anted	-2165
asion	-2166
crypt	-2167
ength	-2168
ening	-2169
fline	-2170
icros	-2171
ified	-2172
igher	-2173
ingle	-2174
ining	-2175
oking	-2176
ology	-2177
ontal	-2178
other	-2179
pster	-2180
sExec	-2181
sible	-2182
tings	-2183
ually	-2184
wards	-2185
ypots	-2186
ython	-2187
▁DAST	-2188
▁Data	-2189
▁Each	-2190
▁Exam	-2191
▁HTML	-2192
▁Hash	-2193
▁John	-2194
▁PTES	-2195
▁Pent	-2196
▁Port	-2197
▁REST	-2198
▁Root	-2199
▁SAST	-2200
▁Stay	-2201
▁Time	-2202
▁When	-2203
▁Zero	-2204
▁apps	-2205
▁auto	-2206
▁curr	-2207
▁dang	-2208
▁emer	-2209
▁ever	-2210
▁feat	-2211
▁flow	-2212
▁gain	-2213
▁harv	-2214
▁heap	-2215
▁hund	-2216
▁jobs	-2217
▁land	-2218
▁maps	-2219
▁most	-2220
▁name	-2221
▁need	-2222
▁none	-2223
▁plan	-2224
▁race	-2225
▁rele	-2226
▁sess	-2227
▁site	-2228
▁stat	-2229
▁stru	-2230
▁sudo	-2231
▁susp	-2232
▁this	-2233
▁trig	-2234
▁troj	-2235
▁twin	-2236
▁type	-2237
andard	-2238
andbox	-2239
asting	-2240
ctured	-2241
erving	-2242
ficult	-2243
isible	-2244
ivides	-2245
onstru	-2246
quoted	-2247
raphQL	-2248
▁27001	-2249
▁Blind	-2250
▁Cloud	-2251
▁Frida	-2252
▁Guide	-2253
▁Hydra	-2254
▁LLMNR	-2255
▁NoSQL	-2256
▁Wires	-2257
▁abuse	-2258
▁achie	-2259
▁campa	-2260
▁dumps	-2261
▁fails	-2262
▁frequ	-2263
▁gener	-2264
▁incre	-2265
▁leaks	-2266
▁limit	-2267
▁numer	-2268
▁offer	-2269
▁overl	-2270
▁posit	-2271
▁pract	-2272
▁produ	-2273
▁rates	-2274
▁reach	-2275
▁reuse	-2276
▁share	-2277
▁suite	-2278
▁their	-2279
▁thous	-2280
▁tries	-2281
▁zones	-2282
ability	-2283
ational	-2284
ertical	-2285
figured	-2286
ignment	-2287
writing	-2288
▁Broken	-2289
▁Client	-2290
▁Hunter	-2291
▁Mobile	-2292
▁Policy	-2293
▁PsExec	-2294
▁Purple	-2295
▁Python	-2296
▁Reaver	-2297
▁Remote	-2298
▁Ripper	-2299
▁Social	-2300
▁Static	-2301
▁accept	-2302
▁actors	-2303
▁associ	-2304
▁checks	-2305
▁create	-2306
▁crypto	-2307
▁deploy	-2308
▁device	-2309
▁diving	-2310
▁double	-2311
▁drives	-2312
▁during	-2313
▁emails	-2314
▁exists	-2315
▁expose	-2316
▁faster	-2317
▁groups	-2318
▁highly	-2319
▁images	-2320
▁inject	-2321
▁instru	-2322
▁layers	-2323
▁metach	-2324
▁mobile	-2325
▁object	-2326
▁others	-2327
▁output	-2328
▁packet	-2329
▁perman	-2330
▁plugin	-2331
▁points	-2332
▁predic	-2333
▁rather	-2334
▁rating	-2335
▁report	-2336
▁single	-2337
▁stored	-2338
▁stores	-2339
▁supply	-2340
▁timing	-2341
▁unique	-2342
ceedings	-2343
earchers	-2344
▁Command	-2345
▁Contain	-2346
▁Defense	-2347
▁GraphQL	-2348
▁Hashcat	-2349
▁Session	-2350
▁another	-2351
▁assumes	-2352
▁causing	-2353
▁cloning	-2354
▁complet	-2355
▁connect	-2356
▁context	-2357
▁current	-2358
▁custody	-2359
▁decrypt	-2360
▁defines	-2361
▁details	-2362
▁diction	-2363
▁disable	-2364
▁divides	-2365
▁domains	-2366
▁enabled	-2367
▁ensures	-2368
▁ethical	-2369
▁evasion	-2370
▁exposes	-2371
▁finding	-2372
▁forcing	-2373
▁formats	-2374
▁hooking	-2375
▁instead	-2376
▁learned	-2377
▁lessons	-2378
▁listing	-2379
▁manages	-2380
▁minimum	-2381
▁offline	-2382
▁outside	-2383
▁packets	-2384
▁parties	-2385
▁payment	-2386
▁picking	-2387
▁proxies	-2388
▁recover	-2389
▁reduces	-2390
▁reports	-2391
▁strateg	-2392
▁summary	-2393
▁unknown	-2394
▁version	-2395
▁virtual	-2396
ailgating	-2397
connected	-2398
endations	-2399
istration	-2400
orizontal	-2401
▁Controls	-2402
▁Examples	-2403
▁Insecure	-2404
▁Password	-2405
▁Phishing	-2406
▁Standard	-2407
▁Template	-2408
▁backdoor	-2409
▁browsers	-2410
▁campaign	-2411
▁captured	-2412
▁classify	-2413
▁comments	-2414
▁contents	-2415
▁coverage	-2416
▁covering	-2417
▁creation	-2418
▁debugger	-2419
▁designed	-2420
▁discover	-2421
▁endpoint	-2422
▁escalate	-2423
▁executed	-2424
▁extracts	-2425
▁features	-2426
▁function	-2427
▁handling	-2428
▁hardware	-2429
▁hundreds	-2430
▁improper	-2431
▁intended	-2432
▁modeling	-2433
▁numerous	-2434
▁programs	-2435
▁properly	-2436
▁protocol	-2437
▁removing	-2438
▁sessions	-2439
▁settings	-2440
▁signific	-2441
▁simulate	-2442
▁standard	-2443
▁strength	-2444
▁targeted	-2445
▁training	-2446
▁transpar	-2447
▁validate	-2448
▁workflow	-2449
ifications	-2450
▁Subdomain	-2451
▁Wireshark	-2452
▁accessing	-2453
▁analytics	-2454
▁authentic	-2455
▁available	-2456
▁baselines	-2457
▁callbacks	-2458
▁confusion	-2459
▁difficult	-2460
▁discovers	-2461
▁effective	-2462
▁endpoints	-2463
▁firewalls	-2464
▁hollowing	-2465
▁immediate	-2466
▁intrusion	-2467
▁invisible	-2468
▁locations	-2469
▁modifying	-2470
▁observing	-2471
▁operating	-2472
▁reconstru	-2473
▁reflected	-2474
▁simulates	-2475
▁thousands	-2476
▁wordlists	-2477
▁Credential	-2478
▁assignment	-2479
▁containing	-2480
▁controlled	-2481
▁controller	-2482
▁difference	-2483
▁extraction	-2484
▁forwarding	-2485
▁harvesting	-2486
▁indicating	-2487
▁performing	-2488
▁preserving	-2489
▁references	-2490
▁requesting	-2491
▁structured	-2492
▁subdomains	-2493
▁successful	-2494
▁suspicious	-2495
▁computation	-2496
▁eradication	-2497
▁exploitable	-2498
▁immediately	-2499
▁interactive	-2500
▁permissions	-2501
▁proceedings	-2502
▁programming	-2503
▁protections	-2504
▁researchers	-2505
▁clickjacking	-2506
▁compromising	-2507
▁continuously	-2508
▁cryptography	-2509
▁insufficient	-2510
▁interception	-2511
▁restrictions	-2512
authentication	-2513
▁authenticated	-2514
▁impersonation	-2515
▁metacharacters	-2516
▁systematically	-2517
▁recommendations	-2518
).	-2519
..	-2520
.2	-2521
00	-2522
02	-2523
1-	-2524
16	-2525
22	-2526
4.	-2527
64	-2528
AT	-2529
BT	-2530
CD	-2531
EC	-2532
EH	-2533
EM	-2534
ET	-2535
FL	-2536
HP	-2537
IO	-2538
LE	-2539
LO	-2540
LR	-2541
MI	-2542
MM	-2543
OC	-2544
OR	-2545
OS	-2546
On	-2547
RM	-2548
TI	-2549
WS	-2550
cy	-2551
dd	-2552
ey	-2553
gu	-2554
ha	-2555
io	-2556
kt	-2557
ld	-2558
ms	-2559
ns	-2560
pp	-2561
sc	-2562
sy	-2563
tb	-2564
vS	-2565
xy	-2566
ya	-2567
▁-	-2568
▁0	-2569
▁Y	-2570
▁x	-2571
-10	-2572
../	-2573
.25	-2574
016	-2575
169	-2576
228	-2577
Dbg	-2578
DoS	-2579
IEM	-2580
ION	-2581
OOD	-2582
Ops	-2583
PRE	-2584
Pet	-2585
SST	-2586
TLM	-2587
TPS	-2588
TPs	-2589
WPA	-2590
abr	-2591
adc	-2592
air	-2593
ale	-2594
ank	-2595
ann	-2596
app	-2597
apt	-2598
arW	-2599
atz	-2600
ays	-2601
boo	-2602
bye	-2603
cis	-2604
cod	-2605
con	-2606
dbg	-2607
der	-2608
eas	-2609
els	-2610
eps	-2611
ept	-2612
erm	-2613
ese	-2614
hid	-2615
iag	-2616
ift	-2617
iod	-2618
les	-2619
lly	-2620
los	-2621
ood	-2622
oul	-2623
pos	-2624
rey	-2625
tes	-2626
uch	-2627
uil	-2628
uns	-2629
war	-2630
way	-2631
ync	-2632
ype	-2633
▁33	-2634
▁Am	-2635
▁Av	-2636
▁CI	-2637
▁Er	-2638
▁Im	-2639
▁LD	-2640
▁Le	-2641
▁MD	-2642
▁Ob	-2643
▁UN	-2644
▁ed	-2645
▁ow	-2646
▁ur	-2647
-202	-2648
1-44	-2649
LOAD	-2650
Only	-2651
READ	-2652
Side	-2653
Sock	-2654
View	-2655
aCry	-2656
aced	-2657
aded	-2658
aged	-2659
ailb	-2660
airs	-2661
aked	-2662
alan	-2663
arly	-2664
asqu	-2665
back	-2666
cams	-2667
chit	-2668
come	-2669
ctly	-2670
drop	-2671
elps	-2672
imet	-2673
imik	-2674
irst	-2675
irty	-2676
irus	-2677
ises	-2678
itle	-2679
ivul	-2680
king	-2681
kits	-2682
leed	-2683
leep	-2684
left	-2685
lers	-2686
line	-2687
logy	-2688
olat	-2689
olen	-2690
ould	-2691
outs	-2692
owns	-2693
pare	-2694
peri	-2695
rain	-2696
rams	-2697
ries	-2698
ring	-2699
rosp	-2700
roys	-2701
sych	-2702
uber	-2703
ults	-2704
uman	-2705
used	-2706
uses	-2707
ustr	-2708
vSec	-2709
whel	-2710
ypes	-2711
▁../	-2712
▁AFL	-2713
▁AWS	-2714
▁Add	-2715
▁Aut	-2716
▁BGP	-2717
▁Bug	-2718
▁CEH	-2719
▁COW	-2720
▁CSF	-2721
▁Com	-2722
▁Cyb	-2723
▁DCS	-2724
▁Dec	-2725
▁DoS	-2726
▁EDR	-2727
▁Eng	-2728
▁FTP	-2729
▁GPU	-2730
▁IDA	-2731
▁Key	-2732
▁LFI	-2733
▁NSE	-2734
▁Not	-2735
▁PHP	-2736
▁RDP	-2737
▁ROP	-2738
▁Reg	-2739
▁Rep	-2740
▁SET	-2741
▁SOC	-2742
▁Set	-2743
▁Sil	-2744
▁Try	-2745
▁UAC	-2746
▁UDP	-2747
▁VPN	-2748
▁Ver	-2749
▁WMI	-2750
▁Wif	-2751
▁You	-2752
▁ZAP	-2753
▁any	-2754
▁bit	-2755
▁bug	-2756
▁dig	-2757
▁dut	-2758
▁enh	-2759
▁ess	-2760
▁fac	-2761
▁flo	-2762
▁fol	-2763
▁hij	-2764
▁hop	-2765
▁may	-2766
▁mis	-2767
▁mut	-2768
▁neg	-2769
▁new	-2770
▁non	-2771
▁obt	-2772
▁pan	-2773
▁pin	-2774
▁pip	-2775
▁pur	-2776
▁quo	-2777
▁sal	-2778
▁spl	-2779
▁tag	-2780
▁two	-2781
▁unp	-2782
▁unw	-2783
▁wel	-2784
.254.	-2785
HTTPS	-2786
Hound	-2787
OODLE	-2788
Petya	-2789
SSTMM	-2790
acked	-2791
activ	-2792
ailed	-2793
aling	-2794
anies	-2795
anner	-2796
arkup	-2797
ashes	-2798
boots	-2799
ceals	-2800
eartb	-2801
econd	-2802
eline	-2803
eness	-2804
erous	-2805
erver	-2806
etype	-2807
gency	-2808
hidra	-2809
ights	-2810
igned	-2811
iples	-2812
ismet	-2813
ither	-2814
level	-2815
losed	-2816
names	-2817
netes	-2818
nment	-2819
ocurr	-2820
odbye	-2821
olden	-2822
omaly	-2823
ompil	-2824
onstr	-2825
order	-2826
ories	-2827
oruns	-2828
plain	-2829
ploye	-2830
ploys	-2831
posit	-2832
puted	-2833
rames	-2834
ualys	-2835
world	-2836
▁ASLR	-2837
▁Blue	-2838
▁Cert	-2839
▁Code	-2840
▁Comp	-2841
▁DDoS	-2842
▁Disc	-2843
▁Hack	-2844
▁Hone	-2845
▁Host	-2846
▁IDOR	-2847
▁Incl	-2848
▁Intr	-2849
▁NTLM	-2850
▁OSCP	-2851
▁Olly	-2852
▁Oper	-2853
▁Pers	-2854
▁Post	-2855
▁Refl	-2856
▁SIEM	-2857
▁SMTP	-2858
▁Sugg	-2859
▁TTPs	-2860
▁This	-2861
▁WAFs	-2862
▁Wann	-2863
▁Weak	-2864
▁ampl	-2865
▁awar	-2866
▁bind	-2867
▁boot	-2868
▁both	-2869
▁buil	-2870
▁case	-2871
▁cons	-2872
▁cost	-2873
▁cron	-2874
▁deco	-2875
▁diag	-2876
▁disk	-2877
▁eval	-2878
▁evil	-2879
▁exch	-2880
▁exha	-2881
▁expr	-2882
▁fabr	-2883
▁fail	-2884
▁flux	-2885
▁four	-2886
▁fund	-2887
▁have	-2888
▁keep	-2889
▁kits	-2890
▁list	-2891
▁make	-2892
▁mass	-2893
▁obsc	-2894
▁only	-2895
▁orch	-2896
▁page	-2897
▁pose	-2898
▁prob	-2899
▁prom	-2900
▁reli	-2901
▁safe	-2902
▁sled	-2903
▁slow	-2904
▁stre	-2905
▁tags	-2906
▁they	-2907
▁topo	-2908
▁true	-2909
▁vect	-2910
▁viol	-2911
▁writ	-2912
▁your	-2913
Socket	-2914
acting	-2915
adding	-2916
aiting	-2917
asquer	-2918
atches	-2919
ecture	-2920
efined	-2921
eption	-2922
ermine	-2923
esters	-2924
ifacts	-2925
istent	-2926
ivirus	-2927
mented	-2928
origin	-2929
ortion	-2930
ptions	-2931
raints	-2932
rectly	-2933
rypted	-2934
script	-2935
trates	-2936
urious	-2937
▁Avoid	-2938
▁Blood	-2939
▁Check	-2940
▁Click	-2941
▁Cover	-2942
▁Cross	-2943
▁DREAD	-2944
▁Expos	-2945
▁Frame	-2946
▁Kuber	-2947
▁Least	-2948
▁Mimik	-2949
▁Proxy	-2950
▁Recon	-2951
▁Refer	-2952
▁Spear	-2953
▁Thank	-2954
▁Token	-2955
▁Types	-2956
▁UNION	-2957
▁VLANs	-2958
▁alloc	-2959
▁areas	-2960
▁audio	-2961
▁badge	-2962
▁balan	-2963
▁bound	-2964
▁cards	-2965
▁check	-2966
▁claim	-2967
▁decod	-2968
▁defac	-2969
▁divul	-2970
▁dynam	-2971
▁early	-2972
▁eaves	-2973
▁encod	-2974
▁entry	-2975
▁every	-2976
▁first	-2977
▁flags	-2978
▁flood	-2979
▁gover	-2980
▁guide	-2981
▁helps	-2982
▁hides	-2983
▁human	-2984
▁image	-2985
▁inurl	-2986
▁lever	-2987
▁login	-2988
▁pairs	-2989
▁party	-2990
▁persp	-2991
▁proof	-2992
▁psych	-2993
▁query	-2994
▁rapid	-2995
▁relay	-2996
▁resol	-2997
▁sanit	-2998
▁scale	-2999
▁scope	-3000
▁score	-3001
▁scrap	-3002
▁sleep	-3003
▁smugg	-3004
▁space	-3005
▁spear	-3006
▁stake	-3007
▁start	-3008
▁state	-3009
▁steps	-3010
▁still	-3011
▁subst	-3012
▁taked	-3013
▁three	-3014
▁times	-3015
▁token	-3016
▁trade	-3017
▁unenc	-3018
▁unint	-3019
▁wiper	-3020
1-44228	-3021
PRELOAD	-3022
aconing	-3023
ageless	-3024
arWinds	-3025
atching	-3026
cessive	-3027
concept	-3028
easures	-3029
holders	-3030
illions	-3031
ionable	-3032
olatile	-3033
vSecOps	-3034
▁Access	-3035
▁DCSync	-3036
▁Engine	-3037
▁Ghidra	-3038
▁Golden	-3039
▁Heartb	-3040
▁Kismet	-3041
▁Living	-3042
▁Micros	-3043
▁OSSTMM	-3044
▁POODLE	-3045
▁Qualys	-3046
▁Ransom	-3047
▁Secure	-3048
▁Silver	-3049
▁Source	-3050
▁System	-3051
▁Unlike	-3052
▁Victim	-3053
▁Wifite	-3054
▁actual	-3055
▁archit	-3056
▁assets	-3057
▁binary	-3058
▁blocks	-3059
▁broadc	-3060
▁causes	-3061
▁coding	-3062
▁copies	-3063
▁depend	-3064
▁destru	-3065
▁disabl	-3066
▁duties	-3067
▁effici	-3068
▁either	-3069
▁encode	-3070
▁ensure	-3071
▁entire	-3072
▁errors	-3073
▁escape	-3074
▁evades	-3075
▁events	-3076
▁experi	-3077
▁forces	-3078
▁forged	-3079
▁forges	-3080
▁gather	-3081
▁grants	-3082
▁higher	-3083
▁infect	-3084
▁infers	-3085
▁keylog	-3086
▁larger	-3087
▁markup	-3088
▁mining	-3089
▁misuse	-3090
▁module	-3091
▁needed	-3092
▁panels	-3093
▁passed	-3094
▁period	-3095
▁placed	-3096
▁precom	-3097
▁purple	-3098
▁reward	-3099
▁rights	-3100
▁safely	-3101
▁schema	-3102
▁scores	-3103
▁serial	-3104
▁severe	-3105
▁should	-3106
▁spaces	-3107
▁stolen	-3108
▁strong	-3109
▁tamper	-3110
▁trojan	-3111
▁trusts	-3112
▁useful	-3113
▁viewed	-3114
▁within	-3115
169.254.	-3116
aborator	-3117
actively	-3118
sibility	-3119
▁Clients	-3120
▁Digital	-3121
▁Dynamic	-3122
▁Explain	-3123
▁Fuzzing	-3124
▁Goodbye	-3125
▁Hunters	-3126
▁Lateral	-3127
▁Malware	-3128
▁Missing	-3129
▁OllyDbg	-3130
▁Process	-3131
▁Rainbow	-3132
▁Scanner	-3133
▁Scoring	-3134
▁acceler	-3135
▁analyze	-3136
▁catches	-3137
▁clients	-3138
▁cracked	-3139
▁crashes	-3140
▁defaces	-3141
▁deploys	-3142
▁disrupt	-3143
▁dorking	-3144
▁employe	-3145
▁entries	-3146
▁gadgets	-3147
▁gaining	-3148
▁hashing	-3149
▁hopping	-3150
▁imaging	-3151
▁improve	-3152
▁industr	-3153
▁install	-3154
▁intitle	-3155
▁leading	-3156
▁library	-3157
▁mapping	-3158
▁masquer	-3159
▁nesting	-3160
▁operate	-3161
▁origins	-3162
▁perimet	-3163
▁pinning	-3164
▁poisons	-3165
▁prepare	-3166
▁present	-3167
▁reboots	-3168
▁release	-3169
▁removes	-3170
▁reveals	-3171
▁routing	-3172
▁sandbox	-3173
▁schemas	-3174
▁secrecy	-3175
▁specify	-3176
▁spreads	-3177
▁support	-3178
▁teaming	-3179
▁trigger	-3180
▁uploads	-3181
▁vectors	-3182
▁viruses	-3183
▁webcams	-3184
▁welcome	-3185
enticated	-3186
ocurrency	-3187
▁Attacker	-3188
▁Critical	-3189
▁Exploits	-3190
▁HTTPOnly	-3191
▁Incident	-3192
▁Intruder	-3193
▁Mimikatz	-3194
▁NotPetya	-3195
▁Physical	-3196
▁Repeater	-3197
▁Response	-3198
▁Vertical	-3199
▁WannaCry	-3200
▁Watering	-3201
▁Wireless	-3202
▁achieves	-3203
▁affected	-3204
▁automate	-3205
▁autoruns	-3206
▁balances	-3207
▁baseline	-3208
▁breached	-3209
▁clicking	-3210
▁commonly	-3211
▁conceals	-3212
▁configur	-3213
▁connects	-3214
▁contacts	-3215
▁corrupts	-3216
▁creating	-3217
▁decompil	-3218
▁defining	-3219
▁demonstr	-3220
▁destroys	-3221
▁detailed	-3222
▁diagrams	-3223
▁dumpster	-3224
▁elements	-3225
▁emerging	-3226
▁ensuring	-3227
▁examines	-3228
▁examples	-3229
▁exchange	-3230
▁existing	-3231
▁facility	-3232
▁filetype	-3233
▁flooding	-3234
▁forensic	-3235
▁forwards	-3236
▁indicate	-3237
▁intruder	-3238
▁involves	-3239
▁isolated	-3240
▁isolates	-3241
▁learning	-3242
▁listings	-3243
▁lockouts	-3244
▁navigate	-3245
▁observes	-3246
▁operator	-3247
▁overwhel	-3248
▁pointing	-3249
▁predicts	-3250
▁reducing	-3251
▁remoting	-3252
▁repeater	-3253
▁required	-3254
▁resolves	-3255
▁resource	-3256
▁responds	-3257
▁stealthy	-3258
▁topology	-3259
▁tracking	-3260
▁unquoted	-3261
▁unsigned	-3262
▁unwanted	-3263
▁uploaded	-3264
▁verifies	-3265
▁watering	-3266
▁workload	-3267
▁writable	-3268
rospection	-3269
▁Companies	-3270
▁Container	-3271
▁DevSecOps	-3272
▁Exposures	-3273
▁Framework	-3274
▁Inclusion	-3275
▁Injection	-3276
▁PowerView	-3277
▁Responder	-3278
▁Suggester	-3279
▁WebSocket	-3280
▁administr	-3281
▁allocated	-3282
▁antivirus	-3283
▁artifacts	-3284
▁awareness	-3285
▁campaigns	-3286
▁capturing	-3287
▁condition	-3288
▁container	-3289
▁dangerous	-3290
▁determine	-3291
▁different	-3292
▁divulging	-3293
▁downgrade	-3294
▁eavesdrop	-3295
▁essential	-3296
▁excessive	-3297
▁executive	-3298
▁existence	-3299
▁extortion	-3300
▁honeypots	-3301
▁increases	-3302
▁isolation	-3303
▁obscurity	-3304
▁permanent	-3305
▁positives	-3306
▁practices	-3307
▁principle	-3308
▁sequences	-3309
▁simulated	-3310
▁smuggling	-3311
▁splitting	-3312
▁stripping	-3313
▁takedowns	-3314
▁typically	-3315
▁validates	-3316
▁workflows	-3317
-2021-44228	-3318
▁BloodHound	-3319
▁Collection	-3320
▁Heartbleed	-3321
▁Kubernetes	-3322
▁Management	-3323
▁Pretexting	-3324
▁Ransomware	-3325
▁SolarWinds	-3326
▁actionable	-3327
▁algorithms	-3328
▁behavioral	-3329
▁boundaries	-3330
▁characters	-3331
▁collecting	-3332
▁completing	-3333
▁constantly	-3334
▁corruption	-3335
▁decryption	-3336
▁defacement	-3337
▁dependency	-3338
▁deployment	-3339
▁dictionary	-3340
▁downgrades	-3341
▁engagement	-3342
▁eventually	-3343
▁executives	-3344
▁experience	-3345
▁expression	-3346
▁fabricated	-3347
▁government	-3348
▁horizontal	-3349
▁identifier	-3350
▁inspection	-3351
▁maximizing	-3352
▁objectives	-3353
▁overlaying	-3354
▁pentesters	-3355
▁pretexting	-3356
▁principles	-3357
▁processing	-3358
▁production	-3359
▁resolution	-3360
▁restricted	-3361
▁signatures	-3362
▁statements	-3363
▁supporting	-3364
▁tailgating	-3365
▁technology	-3366
▁unintended	-3367
▁variations	-3368
▁violations	-3369
▁visibility	-3370
▁whitelists	-3371
▁Information	-3372
▁ModSecurity	-3373
▁Persistence	-3374
▁Responsible	-3375
▁aggregation	-3376
▁compromises	-3377
▁constraints	-3378
▁directories	-3379
▁disassembly	-3380
▁dynamically	-3381
▁efficiently	-3382
▁environment	-3383
▁exfiltrates	-3384
▁improvement	-3385
▁obfuscation	-3386
▁overwriting	-3387
▁performance	-3388
▁perspective	-3389
▁precomputed	-3390
▁preparation	-3391
▁proactively	-3392
▁redirecting	-3393
▁transparent	-3394
▁unencrypted	-3395
▁Applications	-3396
▁Clickjacking	-3397
▁Collaborator	-3398
▁Intelligence	-3399
▁TheHarvester	-3400
▁architecture	-3401
▁authenticate	-3402
▁establishing	-3403
▁impersonates	-3404
▁investigates	-3405
▁periodically	-3406
▁personalized	-3407
▁requirements	-3408
▁stakeholders	-3409
▁standardized	-3410
▁theHarvester	-3411
▁Cybersecurity	-3412
▁Kerberoasting	-3413
▁Steganography	-3414
▁demonstrating	-3415
▁extensibility	-3416
▁investigation	-3417
▁misconfigured	-3418
▁parameterized	-3419
▁significantly	-3420
▁Reconnaissance	-3421
▁administration	-3422
▁certifications	-3423
▁communications	-3424
▁configurations	-3425
▁cryptocurrency	-3426
▁prioritization	-3427
▁reconstruction	-3428
▁responsibility	-3429
▁Vulnerabilities	-3430
▁implementations	-3431
RC	-3432
,00	-3433
443	-3434
9.0	-3435
ATH	-3436
App	-3437
BTG	-3438
DPR	-3439
FID	-3440
HOD	-3441
IPA	-3442
MAC	-3443
PNs	-3444
RCE	-3445
RID	-3446
RMs	-3447
acc	-3448
cer	-3449
ego	-3450
etf	-3451
inx	-3452
ked	-3453
lob	-3454
lue	-3455
pdf	-3456
rib	-3457
rod	-3458
rof	-3459
slo	-3460
sub	-3461
ybo	-3462
▁2.	-3463
▁21	-3464
▁23	-3465
▁25	-3466
▁32	-3467
▁Ev	-3468
▁Fi	-3469
▁IC	-3470
▁jw	-3471
▁vo	-3472
,000	-3473
-016	-3474
-201	-3475
016-	-3476
ASTA	-3477
BTGT	-3478
Blue	-3479
CSRF	-3480
Cert	-3481
IPAA	-3482
RIDE	-3483
SSEC	-3484
UIDs	-3485
afer	-3486
ameS	-3487
appy	-3488
awns	-3489
bles	-3490
book	-3491
cise	-3492
crib	-3493
curr	-3494
ears	-3495
eets	-3496
elie	-3497
epth	-3498
erra	-3499
:.	-3500
017	-3501
CKS	-3502
ded	-3503
iOS	-3504
ier	-3505
otn	-3506
rep	-3507
til	-3508
val	-3509
▁DM	-3510
▁UE	-3511
▁du	-3512
▁eW	-3513
017.	-3514
Foot	-3515
agin	-3516
atal	-3517
ginx	-3518
heck	-3519
here	-3520
hood	-3521
inRM	-3522
ipbo	-3523
kedI	-3524
logg	-3525
mely	-3526
mful	-3527
miss	-3528
mits	-3529
none	-3530
okup	-3531
ongo	-3532
ored	-3533
pets	-3534
plor	-3535
prof	-3536
rich	-3537
rodu	-3538
subm	-3539
tego	-3540
trie	-3541
true	-3542
uded	-3543
umps	-3544
util	-3545
uzzy	-3546
wide	-3547
ynch	-3548
ynet	-3549
ypot	-3550
▁10,	-3551
▁3.0	-3552
▁32-	-3553
▁330	-3554
▁443	-3555
▁9.0	-3556
▁APC	-3557
▁APK	-3558
▁ASV	-3559
▁Ang	-3560
▁BEC	-3561
▁COB	-3562
▁CSP	-3563
▁DES	-3564
▁DMZ	-3565
▁Det	-3566
▁Err	-3567
▁Ext	-3568
▁Fre	-3569
▁GPE	-3570
▁IAM	-3571
▁ICM	-3572
▁IIS	-3573
▁IOC	-3574
▁IPA	-3575
▁IPv	-3576
▁IaC	-3577
▁Imp	-3578
▁JWK	-3579
▁Jin	-3580
▁Lop	-3581
▁NBT	-3582
▁NSA	-3583
▁Obj	-3584
▁PAM	-3585
▁PIN	-3586
▁Pop	-3587
▁RAM	-3588
▁RAT	-3589
▁RFI	-3590
▁SOA	-3591
▁Sup	-3592
▁TOC	-3593
▁UEB	-3594
▁Uni	-3595
▁WEP	-3596
▁XDR	-3597
▁ann	-3598
▁dro	-3599
++	-3600
1/	-3601
2,	-3602
89	-3603
PP	-3604
++,	-3605
eli	-3606
ild	-3607
isk	-3608
mit	-3609
nit	-3610
pre	-3611
wds	-3612
wis	-3613
▁22	-3614
▁IT	-3615
▁WS	-3616
▁am	-3617
ares	-3618
aste	-3619
enty	-3620
ildc	-3621
ired	-3622
nito	-3623
sing	-3624
wise	-3625
▁CVD	-3626
▁HPP	-3627
▁Tel	-3628
▁ele	-3629
▁emb	-3630
▁emp	-3631
▁fet	-3632
▁few	-3633
▁fin	-3634
▁fle	-3635
▁git	-3636
▁har	-3637
▁hid	-3638
▁hoo	-3639
▁hyb	-3640
▁iOS	-3641
▁ine	-3642
▁isA	-3643
▁its	-3644
▁jad	-3645
▁kit	-3646
▁lik	-3647
▁mit	-3648
▁opp	-3649
▁phr	-3650
▁rej	-3651
▁rot	-3652
▁suc	-3653
▁via	-3654
-0160	-3655
-10.0	-3656
-2014	-3657
016-5	-3658
1,000	-3659
Frame	-3660
HODAN	-3661
Linux	-3662
NSSEC	-3663
OSINT	-3664
RBTGT	-3665
abase	-3666
acent	-3667
acing	-3668
admin	-3669
afely	-3670
allel	-3671
anges	-3672
aptop	-3673
arded	-3674
asing	-3675
aults	-3676
cates	-3677
cerns	-3678
claim	-3679
coded	-3680
edded	-3681
emark	-3682
ember	-3683
encer	-3684
ented	-3685
escap	-3686
esent	-3687
faces	-3688
gents	-3689
gress	-3690
ickly	-3691
icles	-3692
idesp	-3693
ignat	-3694
ipher	-3695
isses	-3696
ktool	-3697
leart	-3698
odhel	-3699
PT	-3700
▁1	-3701
Bin	-3702
Off	-3703
The	-3704
atr	-3705
▁AD	-3706
▁Do	-3707
▁Em	-3708
▁IS	-3709
Bins	-3710
HTML	-3711
TheB	-3712
angs	-3713
exam	-3714
ided	-3715
ndpo	-3716
▁ISP	-3717
LBins	-3718
TRIDE	-3719
TheBo	-3720
acket	-3721
ocker	-3722
okups	-3723
olkit	-3724
ongoD	-3725
onsum	-3726
orize	-3727
orted	-3728
otely	-3729
owngr	-3730
poses	-3731
pular	-3732
reach	-3733
rigin	-3734
ssetf	-3735
ticks	-3736
triev	-3737
ularJ	-3738
urate	-3739
uzzer	-3740
veill	-3741
where	-3742
write	-3743
xible	-3744
ynets	-3745
ypass	-3746
▁0-10	-3747
▁3306	-3748
▁3389	-3749
▁ASVS	-3750
▁Addr	-3751
▁Amer	-3752
▁BApp	-3753
▁Bool	-3754
▁Botn	-3755
▁CSTI	-3756
▁Cons	-3757
▁Core	-3758
▁Cron	-3759
▁DLLs	-3760
▁Dang	-3761
▁Deep	-3762
▁Evil	-3763
▁Face	-3764
▁Fiel	-3765
▁Full	-3766
▁GDPR	-3767
▁Give	-3768
▁Grey	-3769
▁HMAC	-3770
▁Hard	-3771
▁Heap	-3772
▁ICMP	-3773
▁IOCs	-3774
▁Impl	-3775
▁Inst	-3776
▁JWKS	-3777
▁Jinj	-3778
▁Lock	-3779
▁MDNS	-3780
▁NOPs	-3781
▁None	-3782
▁ORMs	-3783
▁Orac	-3784
▁Over	-3785
▁PATH	-3786
▁Priv	-3787
▁Prof	-3788
▁RFID	-3789
▁Race	-3790
▁Requ	-3791
▁Rule	-3792
▁SOAR	-3793
▁SPNs	-3794
▁SSID	-3795
▁SSTI	-3796
▁Serv	-3797
▁Shar	-3798
▁Subl	-3799
CI	-3800
DF	-3801
IP	-3802
Ls	-3803
ME	-3804
TO	-3805
ev	-3806
rc	-3807
sV	-3808
so	-3809
sv	-3810
xf	-3811
yc	-3812
▁"	-3813
CLs	-3814
DFs	-3815
IME	-3816
TOU	-3817
acy	-3818
any	-3819
has	-3820
olv	-3821
ped	-3822
por	-3823
svr	-3824
uid	-3825
xfr	-3826
▁IR	-3827
▁so	-3828
ecyc	-3829
elev	-3830
enge	-3831
eper	-3832
iber	-3833
ktop	-3834
ront	-3835
▁PCI	-3836
▁TIP	-3837
▁jwt	-3838
▁lic	-3839
ament	-3840
ashrc	-3841
egacy	-3842
empor	-3843
igent	-3844
ikata	-3845
lines	-3846
quent	-3847
▁ACLs	-3848
▁MIME	-3849
▁PDFs	-3850
▁Quid	-3851
▁Sudo	-3852
▁Text	-3853
▁Troj	-3854
▁TryH	-3855
▁UEBA	-3856
▁Unix	-3857
▁adds	-3858
▁also	-3859
▁anti	-3860
▁axfr	-3861
▁base	-3862
▁bool	-3863
▁cave	-3864
▁conv	-3865
▁copy	-3866
▁coun	-3867
▁curl	-3868
▁deep	-3869
▁degr	-3870
▁devi	-3871
▁drop	-3872
▁dump	-3873
▁eWPT	-3874
▁each	-3875
▁edge	-3876
▁elev	-3877
▁elim	-3878
▁evol	-3879
▁excl	-3880
▁exec	-3881
▁face	-3882
▁fact	-3883
▁fall	-3884
▁feed	-3885
▁fram	-3886
▁free	-3887
▁glob	-3888
▁good	-3889
▁grow	-3890
▁heal	-3891
▁hide	-3892
▁info	-3893
▁init	-3894
▁invo	-3895
▁isAd	-3896
▁jadx	-3897
▁just	-3898
▁last	-3899
95	-3900
:"	-3901
na	-3902
yS	-3903
195	-3904
glo	-3905
ipw	-3906
nai	-3907
rok	-3908
ump	-3909
▁Be	-3910
▁gr	-3911
195)	-3912
exes	-3913
ilar	-3914
name	-3915
oned	-3916
tion	-3917
ulat	-3918
ySQL	-3919
yglo	-3920
yond	-3921
▁For	-3922
▁PGP	-3923
▁mar	-3924
adequ	-3925
eated	-3926
rokes	-3927
▁Auth	-3928
▁GPEN	-3929
▁fold	-3930
▁lead	-3931
▁left	-3932
▁libr	-3933
▁long	-3934
▁matr	-3935
▁move	-3936
▁much	-3937
▁news	-3938
▁nmap	-3939
▁null	-3940
▁ping	-3941
▁qual	-3942
▁quid	-3943
▁quot	-3944
▁rece	-3945
▁repr	-3946
▁runs	-3947
▁sets	-3948
▁snip	-3949
▁sugg	-3950
-0160)	-3951
OLBins	-3952
Origin	-3953
actice	-3954
action	-3955
ailbre	-3956
ameter	-3957
ancest	-3958
ancial	-3959
ancies	-3960
antial	-3961
aptops	-3962
arizes	-3963
atalog	-3964
atched	-3965
cisely	-3966
client	-3967
coders	-3968
coding	-3969
consum	-3970
ctions	-3971
earing	-3972
ecrets	-3973
ecycle	-3974
enames	-3975
encies	-3976
encing	-3977
ending	-3978
enetic	-3979
ention	-3980
ervals	-3981
erview	-3982
esterL	-3983
facing	-3984
gering	-3985
guided	-3986
guises	-3987
iation	-3988
iented	-3989
inates	-3990
incing	-3991
inkedI	-3992
irming	-3993
irtual	-3994
isable	-3995
issues	-3996
isters	-3997
jacent	-3998
nomaly	-3999
32	-4000
80	-4001
Me	-4002
UD	-4003
XF	-4004
ga	-4005
▁@	-4006
RUD	-4007
SSL	-4008
XFR	-4009
ges	-4010
hop	-4011
vwr	-4012
▁80	-4013
▁DC	-4014
▁ai	-4015
▁ut	-4016
ight	-4017
ited	-4018
▁Dat	-4019
▁SMS	-4020
▁low	-4021
▁sig	-4022
ackMe	-4023
adges	-4024
anary	-4025
chain	-4026
oming	-4027
▁AXFR	-4028
▁Anal	-4029
▁CRUD	-4030
▁IAST	-4031
anding	-4032
apping	-4033
igates	-4034
ognito	-4035
ompile	-4036
ongoDB	-4037
onsist	-4038
oordin	-4039
ophish	-4040
ortest	-4041
ourced	-4042
ourtes	-4043
parate	-4044
pended	-4045
places	-4046
played	-4047
plying	-4048
points	-4049
rances	-4050
recise	-4051
reeing	-4052
remely	-4053
resses	-4054
rodump	-4055
ssible	-4056
uation	-4057
ucates	-4058
uggers	-4059
ularJS	-4060
undant	-4061
usting	-4062
ything	-4063
▁2017.	-4064
▁After	-4065
▁Amass	-4066
▁Autom	-4067
▁Black	-4068
▁Chain	-4069
▁Compl	-4070
▁Dirty	-4071
▁Email	-4072
▁Endpo	-4073
▁Error	-4074
▁Field	-4075
▁Fuzzy	-4076
▁GUIDs	-4077
▁Gener	-4078
▁Inter	-4079
▁Jinja	-4080
▁MySQL	-4081
▁NTLMv	-4082
▁Nginx	-4083
▁Organ	-4084
▁Orion	-4085
▁PASTA	-4086
▁Patch	-4087
▁Rapid	-4088
▁Rules	-4089
▁SOCKS	-4090
▁SameS	-4091
▁Sanit	-4092
▁Scope	-4093
▁Setup	-4094
▁Shell	-4095
▁Shift	-4096
▁Short	-4097
▁Solut	-4098
▁Space	-4099
CA	-4100
GA	-4101
VD	-4102
erc	-4103
ern	-4104
ome	-4105
saf	-4106
umb	-4107
usa	-4108
▁Al	-4109
asts	-4110
eloc	-4111
emic	-4112
erts	-4113
fect	-4114
figs	-4115
pers	-4116
roid	-4117
safe	-4118
▁DGA	-4119
▁NVD	-4120
▁SCA	-4121
▁alw	-4122
▁aro	-4123
▁car	-4124
▁unc	-4125
▁war	-4126
▁was	-4127
depth	-4128
edusa	-4129
olons	-4130
ortun	-4131
rupts	-4132
rypto	-4133
thers	-4134
▁Bash	-4135
▁Rome	-4136
▁deny	-4137
▁dist	-4138
▁numb	-4139
ercial	-4140
ervers	-4141
formed	-4142
gether	-4143
ndroid	-4144
tering	-4145
yglots	-4146
▁Apply	-4147
▁HIPAA	-4148
▁Start	-4149
▁Store	-4150
▁Terra	-4151
▁These	-4152
▁Users	-4153
▁Veloc	-4154
▁White	-4155
▁WinRM	-4156
▁Wiper	-4157
▁aband	-4158
▁adapt	-4159
▁alert	-4160
▁among	-4161
▁assum	-4162
▁belie	-4163
▁binds	-4164
▁black	-4165
▁blend	-4166
▁break	-4167
▁built	-4168
▁bytes	-4169
▁carts	-4170
▁cause	-4171
▁caves	-4172
▁chall	-4173
▁decoy	-4174
▁deliv	-4175
▁depen	-4176
▁dirty	-4177
▁dorks	-4178
▁drive	-4179
▁exact	-4180
▁exist	-4181
▁fetch	-4182
▁field	-4183
▁fixed	-4184
▁flows	-4185
▁front	-4186
▁funds	-4187
▁goods	-4188
▁guess	-4189
▁hangs	-4190
▁happy	-4191
▁hooks	-4192
▁incor	-4193
▁ineff	-4194
▁infer	-4195
▁invoc	-4196
▁issue	-4197
▁itsel	-4198
▁jailb	-4199
RLF	-4200
inf	-4201
ron	-4202
uby	-4203
▁--	-4204
▁OR	-4205
▁Se	-4206
▁Tw	-4207
▁op	-4208
ican	-4209
lear	-4210
ties	-4211
▁Dum	-4212
▁IPs	-4213
▁Pay	-4214
▁SDP	-4215
▁Sal	-4216
▁col	-4217
▁cro	-4218
▁hor	-4219
▁lif	-4220
▁mot	-4221
▁pol	-4222
Check	-4223
ceeds	-4224
chase	-4225
index	-4226
pting	-4227
roles	-4228
▁CRLF	-4229
▁Ruby	-4230
▁best	-4231
▁mean	-4232
▁rest	-4233
▁rule	-4234
▁span	-4235
Policy	-4236
TheBox	-4237
ronous	-4238
▁Clear	-4239
▁colum	-4240
▁costs	-4241
▁forms	-4242
▁horse	-4243
▁jumps	-4244
▁keybo	-4245
▁keyst	-4246
▁lands	-4247
▁large	-4248
▁later	-4249
▁layer	-4250
▁loads	-4251
▁locks	-4252
▁marks	-4253
▁match	-4254
▁meets	-4255
▁month	-4256
▁motiv	-4257
▁multi	-4258
▁negot	-4259
▁opens	-4260
▁optim	-4261
▁owner	-4262
▁pagin	-4263
▁parse	-4264
▁phone	-4265
▁pipes	-4266
▁place	-4267
▁power	-4268
▁quant	-4269
▁reads	-4270
▁regis	-4271
▁reinf	-4272
▁reset	-4273
▁roles	-4274
▁safer	-4275
▁salts	-4276
▁scans	-4277
▁scram	-4278
▁semic	-4279
▁shift	-4280
▁simpl	-4281
▁sizes	-4282
▁small	-4283
▁store	-4284
▁subse	-4285
▁templ	-4286
▁theft	-4287
▁touch	-4288
▁trick	-4289
▁until	-4290
▁voice	-4291
▁waste	-4292
▁white	-4293
▁wildc	-4294
▁words	-4295
▁worms	-4296
-2016-5	-4297
Options	-4298
actions	-4299
LS	-4300
yle	-4301
▁Dr	-4302
▁On	-4303
WiFi	-4304
akes	-4305
ants	-4306
ifts	-4307
only	-4308
tool	-4309
▁ACK	-4310
▁TLS	-4311
▁how	-4312
▁now	-4313
▁try	-4314
ensic	-4315
false	-4316
istic	-4317
▁Gran	-4318
▁With	-4319
cement	-4320
efinit	-4321
icates	-4322
ounces	-4323
ystems	-4324
▁Badge	-4325
▁COBIT	-4326
▁Drive	-4327
▁Price	-4328
▁actor	-4329
▁graph	-4330
▁great	-4331
▁style	-4332
▁these	-4333
Padding	-4334
aintext	-4335
amlines	-4336
appears	-4337
ardless	-4338
atalogs	-4339
busting	-4340
claimed	-4341
cribing	-4342
current	-4343
defined	-4344
elevate	-4345
elihood	-4346
emarker	-4347
ensions	-4348
essures	-4349
estions	-4350
example	-4351
ificate	-4352
igently	-4353
ilience	-4354
inaries	-4355
inkedIn	-4356
ionally	-4357
ipboard	-4358
ipwires	-4359
ireplay	-4360
itution	-4361
loggers	-4362
mishing	-4363
nership	-4364
omalies	-4365
oothold	-4366
ourtesy	-4367
plicate	-4368
preters	-4369
profile	-4370
related	-4371
roduces	-4372
slookup	-4373
trieved	-4374
ulatory	-4375
urrence	-4376
verview	-4377
witches	-4378
▁11,000	-4379
▁27001?	-4380
▁Apache	-4381
▁Assetf	-4382
▁Bcrypt	-4383
▁Buffer	-4384
▁Bypass	-4385
▁Canary	-4386
▁Change	-4387
▁CloudF	-4388
▁Covert	-4389
▁Crypto	-4390
▁DNSSEC	-4391
▁Deauth	-4392
▁Docker	-4393
▁Double	-4394
▁Downgr	-4395
▁Encode	-4396
▁Hacker	-4397
▁Images	-4398
▁Impact	-4399
Use	-4400
ocal	-4401
oper	-4402
pose	-4403
▁10.	-4404
▁Con	-4405
▁Out	-4406
▁gap	-4407
▁get	-4408
ayout	-4409
ilege	-4410
inder	-4411
tract	-4412
yware	-4413
▁Risk	-4414
▁fost	-4415
▁grey	-4416
▁kill	-4417
▁loss	-4418
▁unav	-4419
expose	-4420
icting	-4421
riches	-4422
tected	-4423
usions	-4424
▁Brute	-4425
▁Event	-4426
▁Exfil	-4427
▁Langu	-4428
▁Local	-4429
▁Stack	-4430
▁Union	-4431
▁drops	-4432
▁needs	-4433
▁recon	-4434
▁union	-4435
acceler	-4436
eatedly	-4437
ingless	-4438
▁Higher	-4439
▁Inject	-4440
▁Instru	-4441
▁KRBTGT	-4442
▁Layout	-4443
▁Legacy	-4444
▁Logger	-4445
▁Manual	-4446
▁Medusa	-4447
▁Memory	-4448
▁Miscon	-4449
▁Modify	-4450
▁Obfusc	-4451
▁Object	-4452
▁Oracle	-4453
▁Origin	-4454
▁Others	-4455
▁Overly	-4456
▁Packet	-4457
▁Random	-4458
▁Remedi	-4459
▁Rooted	-4460
▁SHODAN	-4461
▁STRIDE	-4462
▁Scores	-4463
▁Screen	-4464
▁Script	-4465
▁Second	-4466
▁Server	-4467
▁Signat	-4468
▁Spider	-4469
▁Spring	-4470
▁Staged	-4471
▁Stored	-4472
▁Supply	-4473
▁TOCTOU	-4474
▁Tamper	-4475
▁Telnet	-4476
▁Tokens	-4477
▁Twenty	-4478
▁Unique	-4479
▁Upload	-4480
▁Verify	-4481
▁abused	-4482
▁adding	-4483
▁admiss	-4484
▁agents	-4485
▁alerts	-4486
▁alters	-4487
▁always	-4488
▁applic	-4489
▁around	-4490
▁asynch	-4491
▁attrib	-4492
▁audits	-4493
▁backup	-4494
▁badges	-4495
▁bashrc	-4496
▁bcrypt	-4497
▁behavi	-4498
▁botnet	-4499
XSS	-4500
icit	-4501
lows	-4502
▁DSS	-4503
▁DTP	-4504
▁IDS	-4505
▁Off	-4506
▁Par	-4507
▁cou	-4508
▁has	-4509
techn	-4510
▁Fast	-4511
▁Land	-4512
▁Mass	-4513
▁mail	-4514
▁spam	-4515
ceding	-4516
execut	-4517
ustion	-4518
versal	-4519
▁probe	-4520
▁trash	-4521
vention	-4522
▁27001,	-4523
▁beyond	-4524
▁builds	-4525
▁caches	-4526
▁called	-4527
▁canary	-4528
▁caused	-4529
▁center	-4530
▁cipher	-4531
▁claims	-4532
▁cleart	-4533
▁clones	-4534
▁closed	-4535
▁column	-4536
▁combin	-4537
▁cookie	-4538
▁coupon	-4539
▁covert	-4540
▁cracks	-4541
▁credit	-4542
▁crowds	-4543
▁decoys	-4544
▁deeper	-4545
▁defend	-4546
▁define	-4547
▁delays	-4548
▁duplic	-4549
▁egress	-4550
▁emphas	-4551
▁enhanc	-4552
▁expand	-4553
▁explor	-4554
▁factor	-4555
▁fodhel	-4556
▁folder	-4557
▁frames	-4558
▁fuzzer	-4559
▁growth	-4560
▁guides	-4561
▁harder	-4562
▁health	-4563
▁hiding	-4564
▁hijack	-4565
▁hybrid	-4566
▁intell	-4567
▁intent	-4568
▁intern	-4569
▁invoke	-4570
▁involv	-4571
▁itself	-4572
▁leaves	-4573
▁living	-4574
▁mapped	-4575
▁master	-4576
▁micros	-4577
▁misses	-4578
▁models	-4579
▁modern	-4580
▁months	-4581
▁moving	-4582
▁mutate	-4583
▁mutual	-4584
▁obtain	-4585
▁offers	-4586
▁online	-4587
▁option	-4588
▁phones	-4589
▁places	-4590
▁plists	-4591
▁policy	-4592
▁probes	-4593
▁quotes	-4594
▁ranges	-4595
▁regsvr	-4596
▁relies	-4597
▁remain	-4598
▁result	-4599
▁rooted	-4600
▁router	-4601
▁routes	-4602
▁second	-4603
▁serves	-4604
▁shared	-4605
▁shifts	-4606
▁spawns	-4607
▁spider	-4608
▁staged	-4609
▁static	-4610
▁string	-4611
▁suites	-4612
▁tempor	-4613
▁theory	-4614
▁unlike	-4615
▁unused	-4616
▁urgent	-4617
▁verify	-4618
▁widesp	-4619
▁writes	-4620
ailbreak	-4621
amentals	-4622
cription	-4623
cryption	-4624
escaping	-4625
essional	-4626
esterLab	-4627
estrates	-4628
idential	-4629
irewalls	-4630
ological	-4631
oriented	-4632
ormation	-4633
password	-4634
persists	-4635
position	-4636
pository	-4637
▁Address	-4638
▁Android	-4639
▁Anomaly	-4640
▁Baiting	-4641
▁Boolean	-4642
▁Botnets	-4643
▁Commons	-4644
▁Coordin	-4645
▁Curious	-4646
▁Default	-4647
▁Diction	-4648
▁Disable	-4649
▁Eternal	-4650
▁Ethical	-4651
▁Gophish	-4652
▁Initial	-4653
▁LOLBins	-4654
▁Maltego	-4655
▁MongoDB	-4656
▁Nexpose	-4657
▁OpenSSL	-4658
▁Packing	-4659
▁Passive	-4660
▁Payload	-4661
▁Pentest	-4662
▁Popular	-4663
▁Referer	-4664
▁Regular	-4665
▁Request	-4666
▁Reverse	-4667
▁Salting	-4668
▁Sandbox	-4669
▁Secrets	-4670
▁Service	-4671
▁Sharing	-4672
▁Sources	-4673
▁Sublist	-4674
▁Tactics	-4675
▁Tickets	-4676
▁Toolkit	-4677
▁Trojans	-4678
▁Victims	-4679
▁Virtual	-4680
▁Vishing	-4681
▁Whaling	-4682
▁accepts	-4683
▁achieve	-4684
▁affects	-4685
▁amplify	-4686
▁analyst	-4687
▁anomaly	-4688
▁apktool	-4689
▁attract	-4690
▁baiting	-4691
▁believe	-4692
▁boolean	-4693
▁bootkit	-4694
▁channel	-4695
▁classes	-4696
▁combine	-4697
▁compact	-4698
▁company	-4699
▁configs	-4700
▁crafted	-4701
▁curious	-4702
▁damages	-4703
▁decoder	-4704
▁decodes	-4705
▁defends	-4706
▁deliber	-4707
▁demands	-4708
▁depends	-4709
▁desktop	-4710
▁disconn	-4711
▁discrep	-4712
▁dumping	-4713
▁encoded	-4714
▁endless	-4715
▁enforce	-4716
▁enhance	-4717
▁entices	-4718
▁evolves	-4719
▁example	-4720
▁expired	-4721
▁extends	-4722
▁follows	-4723
▁framing	-4724
▁generic	-4725
▁genetic	-4726
▁granted	-4727
▁greater	-4728
▁harmful	-4729
▁hijacks	-4730
▁iframes	-4731
▁impacts	-4732
▁inadequ	-4733
▁indexes	-4734
▁infects	-4735
▁insight	-4736
▁invalid	-4737
▁isAdmin	-4738
▁kernels	-4739
▁landing	-4740
▁laptops	-4741
▁license	-4742
▁limited	-4743
▁loaders	-4744
▁locally	-4745
▁locates	-4746
▁logging	-4747
▁lookups	-4748
▁maximum	-4749
▁message	-4750
▁monitor	-4751
▁numbers	-4752
▁obtains	-4753
▁options	-4754
▁orchest	-4755
▁packers	-4756
▁packing	-4757
▁padding	-4758
▁parsing	-4759
▁partial	-4760
▁perfect	-4761
▁phrases	-4762
▁plugins	-4763
▁popular	-4764
▁posture	-4765
▁private	-4766
▁produce	-4767
▁quality	-4768
▁quickly	-4769
▁rapidly	-4770
▁ratings	-4771
▁receive	-4772
▁regions	-4773
▁respond	-4774
▁results	-4775
▁resumes	-4776
▁returns	-4777
▁rewards	-4778
▁risking	-4779
▁rootkit	-4780
▁routers	-4781
▁salting	-4782
▁scraper	-4783
▁secured	-4784
▁sending	-4785
▁shikata	-4786
▁signing	-4787
▁similar	-4788
▁special	-4789
▁spyware	-4790
▁staging	-4791
▁started	-4792
▁startup	-4793
▁streams	-4794
▁submits	-4795
▁systemd	-4796
▁tagging	-4797
▁testers	-4798
▁toolkit	-4799
▁trojans	-4800
▁unified	-4801
▁unreach	-4802
▁updated	-4803
▁urgency	-4804
▁various	-4805
▁viewing	-4806
▁vishing	-4807
▁visible	-4808
▁visited	-4809
▁warning	-4810
▁whaling	-4811
▁windows	-4812
Certified	-4813
Offensive	-4814
allelizes	-4815
ancestors	-4816
consuming	-4817
efinitely	-4818
izational	-4819
operation	-4820
technical	-4821
veillance	-4822
▁169.254.	-4823
▁9.0-10.0	-4824
▁American	-4825
▁Analysis	-4826
▁Autorize	-4827
▁Batching	-4828
▁Binaries	-4829
▁Business	-4830
▁Consider	-4831
▁Coverage	-4832
▁Dangling	-4833
▁Database	-4834
▁Dumpster	-4835
▁Encoders	-4836
▁Endpoint	-4837
▁Engineer	-4838
▁Facebook	-4839
▁Forensic	-4840
▁Granting	-4841
▁LinkedIn	-4842
▁Mutation	-4843
▁National	-4844
▁Pivoting	-4845
▁Practice	-4846
▁Recovery	-4847
▁Registry	-4848
▁Remember	-4849
▁Resource	-4850
▁Rootkits	-4851
▁SameSite	-4852
▁Sanitize	-4853
▁Smishing	-4854
▁Software	-4855
▁Switches	-4856
▁Unquoted	-4857
▁Velocity	-4858
▁Volatile	-4859
▁accessed	-4860
▁accurate	-4861
▁actually	-4862
▁adaptive	-4863
▁adjacent	-4864
▁agencies	-4865
▁agreeing	-4866
▁aircrack	-4867
▁aireplay	-4868
▁airodump	-4869
▁altering	-4870
▁analyzer	-4871
▁anywhere	-4872
▁applying	-4873
▁approach	-4874
▁approval	-4875
▁approves	-4876
▁articles	-4877
▁avoiding	-4878
▁batching	-4879
▁billions	-4880
▁blocking	-4881
▁callback	-4882
▁catalogs	-4883
▁certutil	-4884
▁chaining	-4885
▁changing	-4886
▁claiming	-4887
▁compares	-4888
▁concerns	-4889
▁consumes	-4890
▁contains	-4891
▁counterm	-4892
▁courtesy	-4893
▁dangling	-4894
▁defaults	-4895
▁degrades	-4896
▁disabled	-4897
▁distance	-4898
▁document	-4899
▁educates	-4900
▁elevates	-4901
▁embedded	-4902
▁employee	-4903
▁encoders	-4904
▁enforces	-4905
▁enriches	-4906
▁eventvwr	-4907
▁everyone	-4908
▁evolving	-4909
▁excluded	-4910
▁exhausts	-4911
▁exported	-4912
▁extended	-4913
▁fallback	-4914
▁feedback	-4915
▁fetching	-4916
▁fileless	-4917
▁filtered	-4918
▁flexible	-4919
▁foothold	-4920
▁globally	-4921
▁granting	-4922
▁granular	-4923
▁handlers	-4924
▁honeynet	-4925
▁honeypot	-4926
▁implicit	-4927
▁included	-4928
▁incoming	-4929
▁indirect	-4930
▁industry	-4931
▁injected	-4932
▁inspects	-4933
▁instance	-4934
▁keychain	-4935
▁leverage	-4936
▁location	-4937
▁maintain	-4938
▁managing	-4939
▁manually	-4940
▁matrices	-4941
▁measures	-4942
▁millions	-4943
▁modifies	-4944
▁negative	-4945
▁nslookup	-4946
▁opportun	-4947
▁original	-4948
▁overview	-4949
▁partners	-4950
▁persists	-4951
▁planning	-4952
▁pointers	-4953
▁portions	-4954
▁possible	-4955
▁practice	-4956
▁prepared	-4957
▁promises	-4958
▁purchase	-4959
▁purposes	-4960
▁reaching	-4961
▁recovers	-4962
▁register	-4963
▁reissues	-4964
▁releases	-4965
▁reliable	-4966
▁remotely	-4967
▁replaces	-4968
▁restores	-4969
▁returned	-4970
▁reversal	-4971
▁rootkits	-4972
▁rotation	-4973
▁sanitize	-4974
▁scanners	-4975
▁scrapers	-4976
▁securely	-4977
▁separate	-4978
▁sequence	-4979
▁shortest	-4980
▁smishing	-4981
▁snippets	-4982
▁stealing	-4983
▁strategy	-4984
▁succeeds	-4985
▁switched	-4986
▁together	-4987
▁touching	-4988
▁transmit	-4989
▁tricking	-4990
▁unclosed	-4991
▁unsafely	-4992
▁username	-4993
▁variants	-4994
▁versions	-4995
▁vertical	-4996
▁volatile	-4997
▁wordlist	-4998
executable	-4999
nameserver	-5000
scriptions	-5001
submitting	-5002
▁Algorithm	-5003
▁AngularJS	-5004
▁Automated	-5005
▁Beaconing	-5006
▁Certified	-5007
▁Deception	-5008
▁Decompile	-5009
▁Detection	-5010
▁Discarded	-5011
▁Discovery	-5012
▁Executive	-5013
▁Firewalls	-5014
▁Hardening	-5015
▁Honeynets	-5016
▁Honeypots	-5017
▁Implement	-5018
▁Incognito	-5019
▁Jailbreak	-5020
▁Languages	-5021
▁Malicious	-5022
▁Microsoft	-5023
▁Operators	-5024
▁Parameter	-5025
▁Privilege	-5026
▁Protected	-5027
▁Reference	-5028
▁Reflected	-5029
▁Resources	-5030
▁Scripting	-5031
▁Sensitive	-5032
▁Shellcode	-5033
▁Signature	-5034
▁Solutions	-5035
▁Stageless	-5036
▁Technical	-5037
▁Terraform	-5038
▁TryHackMe	-5039
▁Unauthent	-5040
▁abandoned	-5041
▁accepting	-5042
▁amplifies	-5043
▁announces	-5044
▁anomalies	-5045
▁appearing	-5046
▁associate	-5047
▁attention	-5048
▁attribute	-5049
▁authority	-5050
▁authorize	-5051
▁backticks	-5052
▁beaconing	-5053
▁behaviors	-5054
▁centrally	-5055
▁challenge	-5056
▁cleartext	-5057
▁clipboard	-5058
▁completes	-5059
▁concisely	-5060
▁correctly	-5061
▁debuggers	-5062
▁deception	-5063
▁defensive	-5064
▁demanding	-5065
▁developed	-5066
▁directive	-5067
▁disabling	-5068
▁disguises	-5069
▁displayed	-5070
▁emergency	-5071
▁employees	-5072
▁enforcing	-5073
▁entrances	-5074
▁examining	-5075
▁expensive	-5076
▁exploited	-5077
▁extension	-5078
▁extensive	-5079
▁extremely	-5080
▁filenames	-5081
▁filtering	-5082
▁financial	-5083
▁fodhelper	-5084
▁following	-5085
▁fostering	-5086
▁frequency	-5087
▁generates	-5088
▁hardcoded	-5089
▁hardening	-5090
▁hostnames	-5091
▁identical	-5092
▁imprecise	-5093
▁improving	-5094
▁inconsist	-5095
▁infection	-5096
▁initially	-5097
▁inserting	-5098
▁insertion	-5099
▁interacts	-5100
▁interface	-5101
▁intervals	-5102
▁keyboards	-5103
▁keylogger	-5104
▁landscape	-5105
▁languages	-5106
▁libraries	-5107
▁lifecycle	-5108
▁listening	-5109
▁malformed	-5110
▁maximizes	-5111
▁minimizes	-5112
▁mitigates	-5113
▁navigates	-5114
▁obfuscate	-5115
▁operation	-5116
▁operators	-5117
▁optimized	-5118
▁organizes	-5119
▁originals	-5120
▁otherwise	-5121
▁overwhelm	-5122
▁ownership	-5123
▁perimeter	-5124
▁personnel	-5125
▁pipelines	-5126
▁plaintext	-5127
▁platforms	-5128
▁polyglots	-5129
▁positions	-5130
▁preceding	-5131
▁pressures	-5132
▁privately	-5133
▁processor	-5134
▁prompting	-5135
▁protected	-5136
▁randomize	-5137
▁realistic	-5138
▁redundant	-5139
▁reference	-5140
▁registers	-5141
▁rejecting	-5142
▁remediate	-5143
▁replicate	-5144
▁represent	-5145
▁respected	-5146
▁retrieved	-5147
▁returning	-5148
▁revealing	-5149
▁rewriting	-5150
▁sandboxed	-5151
▁scrambles	-5152
▁sequencer	-5153
▁spreading	-5154
▁stability	-5155
▁stageless	-5156
▁stateless	-5157
▁strategic	-5158
▁suspended	-5159
▁tampering	-5160
▁targeting	-5161
▁templates	-5162
▁temporary	-5163
▁timelines	-5164
▁transform	-5165
▁tripwires	-5166
▁unclaimed	-5167
▁unpacking	-5168
▁unpatched	-5169
▁utilities	-5170
▁variables	-5171
▁whitelist	-5172
▁wildcards	-5173
▁workloads	-5174
-2014-0160)	-5175
-2016-5195)	-5176
Penetration	-5177
accelerated	-5178
ationalizes	-5179
▁Compliance	-5180
▁Continuous	-5181
▁Dictionary	-5182
▁Downgraded	-5183
▁Encryption	-5184
▁Extensions	-5185
▁Freemarker	-5186
▁Generation	-5187
▁HackTheBox	-5188
▁Horizontal	-5189
▁Keyloggers	-5190
▁Operations	-5191
▁Pentesting	-5192
▁Prevention	-5193
▁Reflective	-5194
▁Sandboxing	-5195
▁Separation	-5196
▁SpiderFoot	-5197
▁Tailgating	-5198
▁Vulnerable	-5199
▁accessible	-5200
▁applicable	-5201
▁associates	-5202
▁attempting	-5203
▁broadcasts	-5204
▁classifies	-5205
▁commercial	-5206
▁committing	-5207
▁complexity	-5208
▁compresses	-5209
▁concurrent	-5210
▁confirming	-5211
▁connection	-5212
▁consistent	-5213
▁contacting	-5214
▁convincing	-5215
▁corrupting	-5216
▁customized	-5217
▁delivering	-5218
▁describing	-5219
▁deviations	-5220
▁directives	-5221
▁disappears	-5222
▁discovered	-5223
▁disruption	-5224
▁documented	-5225
▁duplicates	-5226
▁eliminates	-5227
▁enumerates	-5228
▁evaluation	-5229
▁everything	-5230
▁exhaustion	-5231
▁frequented	-5232
▁frequently	-5233
▁generation	-5234
▁guidelines	-5235
▁handshakes	-5236
▁hardcoding	-5237
▁identities	-5238
▁increasing	-5239
▁industrial	-5240
▁infectious	-5241
▁inspecting	-5242
▁interfaces	-5243
▁internally	-5244
▁interrupts	-5245
▁introduces	-5246
▁intrusions	-5247
▁invocation	-5248
▁jailbroken	-5249
▁keylogging	-5250
▁keystrokes	-5251
▁leveraging	-5252
▁likelihood	-5253
▁motivating	-5254
▁navigating	-5255
▁networking	-5256
▁obfuscates	-5257
▁overflowed	-5258
▁overwhelms	-5259
▁pagination	-5260
▁perimeters	-5261
▁permissive	-5262
▁permitting	-5263
▁persistent	-5264
▁personally	-5265
▁predefined	-5266
▁predicting	-5267
▁presenting	-5268
▁prevention	-5269
▁properties	-5270
▁psychology	-5271
▁quantities	-5272
▁randomizes	-5273
▁recommends	-5274
▁recurrence	-5275
▁reflective	-5276
▁regardless	-5277
▁regulatory	-5278
▁remediates	-5279
▁repeatedly	-5280
▁repository	-5281
▁resilience	-5282
▁responding	-5283
▁sandboxing	-5284
▁semicolons	-5285
▁separation	-5286
▁sequential	-5287
▁serialized	-5288
▁simplifies	-5289
▁simulating	-5290
▁simulation	-5291
▁stealthier	-5292
▁strategies	-5293
▁strengthen	-5294
▁subsequent	-5295
▁summarizes	-5296
▁systematic	-5297
▁throughout	-5298
▁triggering	-5299
▁widespread	-5300
-2021-44228)	-5301
-2021-44228?	-5302
ographically	-5303
▁Assetfinder	-5304
▁Certificate	-5305
▁Collections	-5306
▁Composition	-5307
▁Containment	-5308
▁Coordinated	-5309
▁Eradication	-5310
▁EternalBlue	-5311
▁Exploitable	-5312
▁Interactive	-5313
▁Obfuscation	-5314
▁Remediation	-5315
▁associating	-5316
▁assumptions	-5317
▁attribution	-5318
▁authorities	-5319
▁breakpoints	-5320
▁classifying	-5321
▁configuring	-5322
▁correlation	-5323
▁decompilers	-5324
▁deployments	-5325
▁description	-5326
▁deserialize	-5327
▁destruction	-5328
▁destructive	-5329
▁differently	-5330
▁downloading	-5331
▁emphasizing	-5332
▁enforcement	-5333
▁enhancement	-5334
▁exploration	-5335
▁filesystems	-5336
▁fingerprint	-5337
▁identifiers	-5338
▁identifying	-5339
▁incorrectly	-5340
▁ineffective	-5341
▁interacting	-5342
▁interaction	-5343
▁investigate	-5344
▁involvement	-5345
▁masqueraded	-5346
▁meaningless	-5347
▁nameservers	-5348
▁negotiation	-5349
▁overlapping	-5350
▁permanently	-5351
▁potentially	-5352
▁prioritized	-5353
▁prioritizes	-5354
▁referencing	-5355
▁reinfection	-5356
▁reliability	-5357
▁replication	-5358
▁requirement	-5359
▁responsible	-5360
▁restricting	-5361
▁significant	-5362
▁streamlines	-5363
▁substantial	-5364
▁suggestions	-5365
▁unavailable	-5366
▁unreachable	-5367
▁Exfiltration	-5368
▁Insufficient	-5369
▁Organization	-5370
▁PentesterLab	-5371
▁Professional	-5372
▁Verification	-5373
▁accelerating	-5374
▁acceleration	-5375
▁asynchronous	-5376
▁authenticity	-5377
▁broadcasting	-5378
▁combinations	-5379
▁communicates	-5380
▁confidential	-5381
▁configurable	-5382
▁coordinators	-5383
▁crowdsourced	-5384
▁deliberately	-5385
▁dictionaries	-5386
▁disassembler	-5387
▁fundamentals	-5388
▁identifiable	-5389
▁improvements	-5390
▁inadequately	-5391
▁indefinitely	-5392
▁installation	-5393
▁instructions	-5394
▁instrumented	-5395
▁interpreters	-5396
▁masquerading	-5397
▁orchestrates	-5398
▁parallelizes	-5399
▁presentation	-5400
▁reconstructs	-5401
▁registration	-5402
▁sanitization	-5403
▁substitution	-5404
▁surveillance	-5405
▁transactions	-5406
▁transferring	-5407
▁transparency	-5408
▁whitelisting	-5409
▁Authenticated	-5410
▁Configuration	-5411
▁Cryptojacking	-5412
▁Introspection	-5413
▁Misconfigured	-5414
▁Randomization	-5415
▁Sophisticated	-5416
▁accessibility	-5417
▁admissibility	-5418
▁cryptojacking	-5419
▁decompilation	-5420
▁deserializing	-5421
▁disassemblers	-5422
▁disconnecting	-5423
▁discrepancies	-5424
▁documentation	-5425
▁impersonating	-5426
▁intelligently	-5427
▁intentionally	-5428
▁international	-5429
▁introspection	-5430
▁opportunities	-5431
▁orchestration	-5432
▁psychological	-5433
▁serialization	-5434
▁subscriptions	-5435
▁understanding	-5436
▁CloudFormation	-5437
▁administrative	-5438
▁administrators	-5439
▁exploitability	-5440
▁identification	-5441
▁implementation	-5442
▁inconsistently	-5443
▁organizational	-5444
▁specifications	-5445
▁Instrumentation	-5446
▁Unauthenticated	-5447
▁computationally	-5448
▁countermeasures	-5449
▁instrumentation	-5450
▁operationalizes	-5451
▁unauthenticated	-5452
-01	-5453
-20	-5454
-44	-5455
.0-	-5456
000	-5457
001	-5458
01?	-5459
021	-5460
10,	-5461
10.	-5462
10?	-5463
201	-5464
442	-5465
9.2	-5466
95)	-5467
IDs	-5468
ITM	-5469
LMN	-5470
NIO	-5471
OPs	-5472
PAA	-5473
REA	-5474
Syn	-5475
TML	-5476
Vie	-5477
cla	-5478
ddr	-5479
def	-5480
job	-5481
lux	-5482
naC	-5483
oki	-5484
ook	-5485
syn	-5486
ybr	-5487
▁..	-5488
▁0-	-5489
▁16	-5490
▁20	-5491
▁27	-5492
▁3.	-5493
▁44	-5494
0160	-5495
021-	-5496
10.0	-5497
228)	-5498
228?	-5499
RBT	-5500
RLs	-5501
SIN	-5502
SRF	-5503
ZAP	-5504
ogr	-5505
oog	-5506
ruc	-5507
▁Fr	-5508
▁Fu	-5509
1,00	-5510
4422	-5511
9.25	-5512
ITRE	-5513
NION	-5514
ODLE	-5515
RBTG	-5516
RELO	-5517
TLMv	-5518
TRID	-5519
aims	-5520
anog	-5521
avaS	-5522
bero	-5523
bfus	-5524
bugg	-5525
clos	-5526
curs	-5527
door	-5528
duce	-5529
eals	-5530
east	-5531
edge	-5532
eill	-5533
embl	-5534
etya	-5535
fely	-5536
genc	-5537
grad	-5538
guis	-5539
hanc	-5540
helm	-5541
hips	-5542
idra	-5543
ieve	-5544
inci	-5545
isms	-5546
isru	-5547
kata	-5548
ledg	-5549
lgor	-5550
lock	-5551
ngul	-5552
odby	-5553
oice	-5554
oken	-5555
onna	-5556
oord	-5557
ooth	-5558
orru	-5559
osts	-5560
pace	-5561
panc	-5562
rade	-5563
rgan	-5564
rint	-5565
ruct	-5566
soft	-5567
sues	-5568
text	-5569
tros	-5570
turn	-5571
uide	-5572
ulti	-5573
uxil	-5574
vels	-5575
void	-5576
want	-5577
yber	-5578
ycle	-5579
ylog	-5580
zone	-5581
▁169	-5582
▁270	-5583
▁ASL	-5584
▁COR	-5585
▁CST	-5586
▁DRE	-5587
▁Dev	-5588
▁Fac	-5589
▁Fas	-5590
▁Ful	-5591
▁Fuz	-5592
▁GDP	-5593
▁JSO	-5594
▁Kis	-5595
▁Kub	-5596
▁MyS	-5597
▁NIS	-5598
▁NTL	-5599
OAD	-5600
kup	-5601
upp	-5602
File	-5603
Qual	-5604
allb	-5605
alls	-5606
efer	-5607
etup	-5608
nown	-5609
oard	-5610
ople	-5611
owng	-5612
penV	-5613
port	-5614
renc	-5615
rite	-5616
roup	-5617
tort	-5618
uite	-5619
▁NoS	-5620
▁ORM	-5621
▁OSC	-5622
▁OSI	-5623
▁PAT	-5624
▁PDF	-5625
▁Rea	-5626
▁SPN	-5627
▁Spr	-5628
▁Typ	-5629
▁Unl	-5630
▁arb	-5631
▁avo	-5632
▁dyn	-5633
▁fla	-5634
▁fuz	-5635
▁lev	-5636
▁max	-5637
▁mob	-5638
▁urg	-5639
▁vie	-5640
▁zer	-5641
-2016	-5642
.0-10	-5643
4-016	-5644
4.169	-5645
7001?	-5646
CSync	-5647
PRELO	-5648
Polic	-5649
Winds	-5650
ackup	-5651
adcas	-5652
afted	-5653
alled	-5654
anced	-5655
andbo	-5656
andsc	-5657
anels	-5658
annaC	-5659
arden	-5660
arenc	-5661
arger	-5662
arted	-5663
artup	-5664
ather	-5665
avior	-5666
backs	-5667
bally	-5668
bfusc	-5669
bines	-5670
boxed	-5671
cards	-5672
celer	-5673
ciple	-5674
crack	-5675
dless	-5676
doors	-5677
duces	-5678
eader	-5679
ecOps	-5680
ecept	-5681
econn	-5682
ecrec	-5683
egrad	-5684
elnet	-5685
embly	-5686
enari	-5687
eople	-5688
erify	-5689
eroas	-5690
ertut	-5691
ervie	-5692
estru	-5693
evate	-5694
eylog	-5695
fault	-5696
feren	-5697
filtr	-5698
flows	-5699
LLs	-5700
cop	-5701
opp	-5702
opy	-5703
sof	-5704
top	-5705
▁GD	-5706
▁GU	-5707
▁Gh	-5708
▁Jo	-5709
LANs	-5710
angl	-5711
earn	-5712
elib	-5713
hang	-5714
hodo	-5715
ibut	-5716
ickj	-5717
igns	-5718
isib	-5719
opul	-5720
ount	-5721
pear	-5722
ptop	-5723
puts	-5724
▁DAS	-5725
▁Gen	-5726
▁Gol	-5727
▁Gop	-5728
▁Gre	-5729
▁IAS	-5730
▁PAS	-5731
▁Sof	-5732
▁Sop	-5733
▁cla	-5734
▁cli	-5735
▁kee	-5736
▁sop	-5737
Penet	-5738
anual	-5739
chang	-5740
emedi	-5741
ememb	-5742
enetr	-5743
ensib	-5744
esign	-5745
fects	-5746
ganiz	-5747
gines	-5748
grams	-5749
haust	-5750
hellc	-5751
helms	-5752
ibute	-5753
iches	-5754
idual	-5755
ients	-5756
iewed	-5757
ifite	-5758
igger	-5759
ighly	-5760
igins	-5761
ignif	-5762
ikatz	-5763
inked	-5764
iorit	-5765
iresh	-5766
isely	-5767
issib	-5768
isuse	-5769
izont	-5770
jacks	-5771
lease	-5772
lient	-5773
loodH	-5774
loudF	-5775
lyDbg	-5776
minis	-5777
mises	-5778
nauth	-5779
ncode	-5780
nects	-5781
ngine	-5782
nomal	-5783
oards	-5784
odify	-5785
ofing	-5786
ogger	-5787
ognit	-5788
okens	-5789
okies	-5790
ollut	-5791
omize	-5792
onsid	-5793
otPet	-5794
otkit	-5795
otnet	-5796
ounts	-5797
owerS	-5798
owerV	-5799
RD	-5800
Ra	-5801
VP	-5802
kf	-5803
nq	-5804
Blo	-5805
FTP	-5806
ara	-5807
dom	-5808
ege	-5809
lug	-5810
mas	-5811
ogg	-5812
omb	-5813
omw	-5814
ora	-5815
pas	-5816
pid	-5817
sur	-5818
uag	-5819
urg	-5820
uri	-5821
uti	-5822
xin	-5823
▁II	-5824
▁IO	-5825
▁mo	-5826
Pack	-5827
ackd	-5828
ansf	-5829
ansm	-5830
ansp	-5831
atur	-5832
elin	-5833
hack	-5834
hist	-5835
inar	-5836
jans	-5837
list	-5838
ools	-5839
sist	-5840
utom	-5841
▁bal	-5842
▁blo	-5843
▁dom	-5844
▁han	-5845
▁mas	-5846
▁pas	-5847
▁rea	-5848
▁reb	-5849
▁rev	-5850
▁rig	-5851
▁sho	-5852
▁tas	-5853
achar	-5854
acker	-5855
alist	-5856
annel	-5857
ategy	-5858
etach	-5859
iffer	-5860
istan	-5861
ively	-5862
ocols	-5863
ollab	-5864
ommon	-5865
onnel	-5866
ooted	-5867
paign	-5868
pared	-5869
patch	-5870
penSS	-5871
pider	-5872
plify	-5873
point	-5874
ports	-5875
pread	-5876
rants	-5877
ranul	-5878
raper	-5879
raphy	-5880
rastr	-5881
reads	-5882
recis	-5883
rency	-5884
retex	-5885
rices	-5886
rites	-5887
rives	-5888
ructs	-5889
sance	-5890
slook	-5891
stant	-5892
stead	-5893
sumes	-5894
sures	-5895
tains	-5896
terme	-5897
tific	-5898
uages	-5899
Do	-5900
Mi	-5901
Ol	-5902
Pr	-5903
RB	-5904
We	-5905
iO	-5906
rw	-5907
Cor	-5908
Fil	-5909
Man	-5910
Mem	-5911
Mut	-5912
Ran	-5913
San	-5914
anu	-5915
att	-5916
blo	-5917
etu	-5918
icl	-5919
ilb	-5920
ils	-5921
ilv	-5922
jan	-5923
ket	-5924
lan	-5925
llo	-5926
lou	-5927
nic	-5928
rut	-5929
san	-5930
tut	-5931
uto	-5932
xac	-5933
ylo	-5934
▁Ia	-5935
▁TO	-5936
▁eg	-5937
▁et	-5938
▁pe	-5939
▁ty	-5940
Give	-5941
acil	-5942
anis	-5943
atel	-5944
eset	-5945
essa	-5946
ials	-5947
iles	-5948
ilet	-5949
inan	-5950
ingl	-5951
itor	-5952
lack	-5953
ndan	-5954
polo	-5955
rout	-5956
sent	-5957
uces	-5958
utat	-5959
uted	-5960
▁Dan	-5961
▁eit	-5962
▁exc	-5963
▁pri	-5964
▁req	-5965
▁tru	-5966
▁win	-5967
dlist	-5968
eting	-5969
iddle	-5970
ieves	-5971
ishes	-5972
sions	-5973
ummar	-5974
umpst	-5975
unces	-5976
undre	-5977
unnel	-5978
uplic	-5979
upply	-5980
ustry	-5981
uthor	-5982
uxili	-5983
waren	-5984
whelm	-5985
xecut	-5986
ybers	-5987
ybrid	-5988
yntax	-5989
▁Apac	-5990
▁Appl	-5991
▁Buff	-5992
▁DevS	-5993
▁Dock	-5994
▁Expo	-5995
▁Fuzz	-5996
▁GUID	-5997
▁Gold	-5998
▁Good	-5999
AX	-6000
Go	-6001
PI	-6002
Pv	-6003
RA	-6004
SE	-6005
To	-6006
Wi	-6007
cs	-6008
ej	-6009
nV	-6010
vu	-6011
01,	-6012
Eac	-6013
Fac	-6014
Hac	-6015
Pac	-6016
Piv	-6017
Pre	-6018
Pro	-6019
Rac	-6020
aut	-6021
bac	-6022
dro	-6023
edb	-6024
ede	-6025
edl	-6026
edu	-6027
eed	-6028
elp	-6029
erF	-6030
hed	-6031
mac	-6032
ned	-6033
non	-6034
rob	-6035
roc	-6036
rog	-6037
rov	-6038
rox	-6039
roy	-6040
sac	-6041
tal	-6042
urc	-6043
urt	-6044
xed	-6045
▁MA	-6046
▁ba	-6047
▁da	-6048
▁ea	-6049
▁mu	-6050
Test	-6051
acon	-6052
eded	-6053
emar	-6054
inal	-6055
ined	-6056
niqu	-6057
plet	-6058
sert	-6059
uppl	-6060
▁Dyn	-6061
▁Ref	-6062
▁San	-6063
▁Ser	-6064
▁cac	-6065
▁gre	-6066
▁mec	-6067
▁mic	-6068
▁pac	-6069
▁sep	-6070
▁tro	-6071
▁wip	-6072
ances	-6073
aning	-6074
defin	-6075
erfor	-6076
flect	-6077
gions	-6078
hical	-6079
iscar	-6080
roach	-6081
▁Goog	-6082
▁Grap	-6083
▁HIPA	-6084
▁Hear	-6085
▁Jail	-6086
▁Kism	-6087
▁Malt	-6088
▁Mong	-6089
▁OSST	-6090
▁Prox	-6091
▁PsEx	-6092
▁Pyth	-6093
▁Qual	-6094
▁Rans	-6095
▁SOCK	-6096
▁SQLm	-6097
▁Same	-6098
▁Scan	-6099
PS	-6100
SQ	-6101
ba	-6102
br	-6103
hs	-6104
jw	-6105
lv	-6106
nu	-6107
DAN	-6108
Gop	-6109
Mal	-6110
Pat	-6111
agg	-6112
alt	-6113
bal	-6114
cas	-6115
cog	-6116
dic	-6117
eet	-6118
gal	-6119
gic	-6120
hic	-6121
inn	-6122
jad	-6123
jec	-6124
lap	-6125
lic	-6126
nda	-6127
ndb	-6128
ndp	-6129
ndr	-6130
olo	-6131
ots	-6132
pic	-6133
ral	-6134
seg	-6135
ubd	-6136
urs	-6137
vis	-6138
vol	-6139
wal	-6140
wil	-6141
yin	-6142
▁AT	-6143
▁Af	-6144
▁Bo	-6145
▁Ke	-6146
▁UR	-6147
▁WE	-6148
▁Wi	-6149
▁aw	-6150
▁fo	-6151
akeh	-6152
arac	-6153
ardc	-6154
gies	-6155
hake	-6156
icen	-6157
mall	-6158
thon	-6159
▁Wat	-6160
▁Wit	-6161
▁alt	-6162
▁bet	-6163
▁cal	-6164
▁fal	-6165
▁inp	-6166
▁med	-6167
▁pic	-6168
▁sum	-6169
▁tic	-6170
▁wid	-6171
anent	-6172
eauth	-6173
oving	-6174
rojan	-6175
ssess	-6176
thing	-6177
▁2017	-6178
▁OSIN	-6179
▁Scor	-6180
▁Scre	-6181
▁Shif	-6182
▁Sign	-6183
▁Soft	-6184
▁Soph	-6185
▁Stag	-6186
▁Star	-6187
▁Stat	-6188
▁Stor	-6189
▁Swit	-6190
▁Than	-6191
▁Thes	-6192
▁Unqu	-6193
▁Vict	-6194
▁WebS	-6195
▁agen	-6196
▁agre	-6197
▁anom	-6198
▁anot	-6199
-0	-6200
CE	-6201
Ot	-6202
SD	-6203
Sa	-6204
VL	-6205
Cre	-6206
Rec	-6207
Sec	-6208
TMM	-6209
asq	-6210
dec	-6211
dre	-6212
eac	-6213
ece	-6214
ecr	-6215
ecu	-6216
eds	-6217
fec	-6218
fes	-6219
fre	-6220
ged	-6221
hal	-6222
hem	-6223
ila	-6224
ods	-6225
pac	-6226
pec	-6227
pet	-6228
pro	-6229
reb	-6230
rec	-6231
red	-6232
ref	-6233
reg	-6234
rem	-6235
rev	-6236
rew	-6237
tic	-6238
tre	-6239
ura	-6240
xil	-6241
▁AF	-6242
▁AR	-6243
▁Ad	-6244
▁As	-6245
▁Au	-6246
▁US	-6247
▁pa	-6248
▁pi	-6249
▁wi	-6250
Exec	-6251
User	-6252
aceb	-6253
acem	-6254
alat	-6255
ched	-6256
econ	-6257
enin	-6258
epar	-6259
eral	-6260
erim	-6261
hish	-6262
inis	-6263
ised	-6264
isit	-6265
itec	-6266
ness	-6267
quic	-6268
rice	-6269
rser	-6270
uled	-6271
unit	-6272
utiv	-6273
▁cat	-6274
▁cer	-6275
cated	-6276
chers	-6277
emote	-6278
ertif	-6279
inser	-6280
lance	-6281
roups	-6282
veals	-6283
▁Fire	-6284
▁apkt	-6285
▁arch	-6286
▁audi	-6287
▁bill	-6288
▁boun	-6289
▁brok	-6290
▁brow	-6291
▁buff	-6292
▁cach	-6293
▁clic	-6294
▁clos	-6295
▁craf	-6296
▁dece	-6297
▁defa	-6298
▁dela	-6299
dp	-6300
eu	-6301
sA	-6302
ua	-6303
BIT	-6304
For	-6305
OCT	-6306
Ris	-6307
Rom	-6308
Sit	-6309
alu	-6310
dan	-6311
dum	-6312
eav	-6313
een	-6314
eis	-6315
eit	-6316
erl	-6317
ett	-6318
fal	-6319
flo	-6320
his	-6321
hit	-6322
isa	-6323
isg	-6324
isr	-6325
itl	-6326
itu	-6327
lab	-6328
lis	-6329
mis	-6330
ois	-6331
oit	-6332
ris	-6333
sis	-6334
tem	-6335
uit	-6336
vec	-6337
xam	-6338
▁TT	-6339
▁VP	-6340
▁ma	-6341
▁si	-6342
▁ta	-6343
▁te	-6344
▁ti	-6345
arge	-6346
bing	-6347
ered	-6348
fing	-6349
gion	-6350
hing	-6351
icat	-6352
ifac	-6353
iltr	-6354
inat	-6355
isin	-6356
itat	-6357
jack	-6358
nion	-6359
onit	-6360
orit	-6361
ramm	-6362
rein	-6363
sign	-6364
sion	-6365
▁Col	-6366
▁enr	-6367
▁slo	-6368
avail	-6369
ctory	-6370
gentl	-6371
ising	-6372
ition	-6373
unter	-6374
▁Dire	-6375
▁Fram	-6376
▁Syst	-6377
▁desk	-6378
▁deve	-6379
▁diff	-6380
▁disg	-6381
▁dork	-6382
▁entr	-6383
▁enum	-6384
▁erad	-6385
▁evad	-6386
▁exac	-6387
▁exis	-6388
▁flag	-6389
▁flaw	-6390
▁flex	-6391
▁grap	-6392
▁hang	-6393
▁happ	-6394
▁inur	-6395
▁keyb	-6396
▁lang	-6397
▁lapt	-6398
▁leav	-6399
2.	-6400
Ia	-6401
KS	-6402
Ri	-6403
lc	-6404
rS	-6405
DNS	-6406
Non	-6407
Pas	-6408
QLm	-6409
VSS	-6410
adm	-6411
alf	-6412
don	-6413
dso	-6414
ecO	-6415
eln	-6416
hly	-6417
iso	-6418
ita	-6419
lon	-6420
lor	-6421
mor	-6422
nor	-6423
oma	-6424
ona	-6425
onf	-6426
oni	-6427
onm	-6428
ork	-6429
orr	-6430
oru	-6431
orw	-6432
reu	-6433
sig	-6434
sor	-6435
▁JS	-6436
▁id	-6437
▁sw	-6438
▁sy	-6439
alit	-6440
cent	-6441
dent	-6442
edur	-6443
enta	-6444
ente	-6445
enti	-6446
eplo	-6447
erit	-6448
etec	-6449
ipel	-6450
itiv	-6451
kies	-6452
onin	-6453
oren	-6454
ostn	-6455
rack	-6456
reac	-6457
tent	-6458
vere	-6459
▁338	-6460
▁Bus	-6461
▁Hon	-6462
▁Liv	-6463
▁OSS	-6464
▁Rap	-6465
▁ref	-6466
▁sen	-6467
▁tra	-6468
arder	-6469
eding	-6470
enter	-6471
entin	-6472
erent	-6473
ernet	-6474
igure	-6475
overt	-6476
plate	-6477
▁Down	-6478
▁beac	-6479
▁desc	-6480
▁enab	-6481
▁forw	-6482
▁hidd	-6483
▁logg	-6484
▁look	-6485
▁mani	-6486
▁mark	-6487
▁mill	-6488
▁norm	-6489
▁offl	-6490
▁pars	-6491
▁pick	-6492
▁plac	-6493
▁plis	-6494
▁proo	-6495
▁rand	-6496
▁rang	-6497
▁rans	-6498
▁rebo	-6499
LF	-6500
Sh	-6501
XX	-6502
bS	-6503
ku	-6504
sl	-6505
yw	-6506
▁q	-6507
Bro	-6508
Dig	-6509
Lat	-6510
Nat	-6511
OCs	-6512
Pur	-6513
Sen	-6514
Tes	-6515
Wat	-6516
ath	-6517
atu	-6518
bat	-6519
bes	-6520
clo	-6521
cri	-6522
des	-6523
dis	-6524
eat	-6525
eco	-6526
edo	-6527
enf	-6528
eni	-6529
enr	-6530
enu	-6531
env	-6532
esd	-6533
esh	-6534
esp	-6535
esu	-6536
etw	-6537
hen	-6538
hes	-6539
irt	-6540
lar	-6541
nat	-6542
nes	-6543
nly	-6544
oes	-6545
onv	-6546
pot	-6547
pul	-6548
res	-6549
uat	-6550
uen	-6551
una	-6552
wat	-6553
xat	-6554
zes	-6555
▁Sy	-6556
▁di	-6557
▁fu	-6558
▁me	-6559
Rand	-6560
ampl	-6561
anar	-6562
bile	-6563
hite	-6564
isel	-6565
isus	-6566
izon	-6567
loit	-6568
mary	-6569
mong	-6570
ocol	-6571
orat	-6572
pand	-6573
pent	-6574
wall	-6575
▁End	-6576
▁RES	-6577
▁exh	-6578
▁sec	-6579
▁tho	-6580
glots	-6581
ihood	-6582
reams	-6583
▁Frid	-6584
▁hook	-6585
▁regs	-6586
▁repe	-6587
▁rewr	-6588
▁righ	-6589
▁runt	-6590
▁scop	-6591
▁sear	-6592
▁sens	-6593
▁shik	-6594
▁sing	-6595
▁snif	-6596
▁soph	-6597
▁spac	-6598
▁spaw	-6599
--	-6600
20	-6601
DD	-6602
DL	-6603
Dy	-6604
Em	-6605
En	-6606
IA	-6607
LD	-6608
Le	-6609
MA	-6610
MB	-6611
MN	-6612
MS	-6613
Ne	-6614
Ov	-6615
PR	-6616
Po	-6617
TR	-6618
UI	-6619
Va	-6620
be	-6621
cO	-6622
dH	-6623
dv	-6624
nm	-6625
sa	-6626
vi	-6627
vs	-6628
wl	-6629
wn	-6630
Lan	-6631
Ses	-6632
ati	-6633
bas	-6634
cin	-6635
dat	-6636
ena	-6637
ere	-6638
fit	-6639
iat	-6640
ilt	-6641
inb	-6642
inv	-6643
lat	-6644
mes	-6645
nds	-6646
nre	-6647
ono	-6648
oss	-6649
pin	-6650
rat	-6651
sen	-6652
sso	-6653
vas	-6654
▁BA	-6655
▁UA	-6656
HTTP	-6657
asur	-6658
coun	-6659
ctiv	-6660
ecom	-6661
entl	-6662
etas	-6663
etic	-6664
igur	-6665
iner	-6666
itut	-6667
pond	-6668
serv	-6669
unts	-6670
urit	-6671
vest	-6672
▁enu	-6673
▁ser	-6674
▁too	-6675
ivate	-6676
lects	-6677
nalys	-6678
pects	-6679
wners	-6680
wsers	-6681
▁Whal	-6682
▁stil	-6683
▁subd	-6684
▁subm	-6685
▁subs	-6686
▁trad	-6687
▁unkn	-6688
▁unre	-6689
▁usef	-6690
▁verb	-6691
▁vert	-6692
▁virt	-6693
▁word	-6694
▁worm	-6695
-2016-	-6696
-2021-	-6697
016-51	-6698
11,000	-6699
17	-6700
Ac	-6701
BE	-6702
Bu	-6703
Cl	-6704
Ho	-6705
Li	-6706
Na	-6707
ON	-6708
Ob	-6709
PK	-6710
SH	-6711
SL	-6712
SR	-6713
Sy	-6714
TC	-6715
Tw	-6716
XM	-6717
dx	-6718
gy	-6719
ln	-6720
ny	-6721
ph	-6722
pm	-6723
rb	-6724
rm	-6725
sn	-6726
tt	-6727
tu	-6728
va	-6729
xh	-6730
yz	-6731
Clo	-6732
Com	-6733
asp	-6734
but	-6735
dds	-6736
eil	-6737
ema	-6738
esk	-6739
fac	-6740
heB	-6741
hon	-6742
iel	-6743
itc	-6744
itr	-6745
kat	-6746
kel	-6747
lut	-6748
rej	-6749
roa	-6750
sin	-6751
▁DE	-6752
Site	-6753
ardl	-6754
chan	-6755
eces	-6756
elds	-6757
etac	-6758
fies	-6759
odan	-6760
reas	-6761
utab	-6762
▁Lat	-6763
▁Pur	-6764
▁Vol	-6765
▁Wip	-6766
▁iso	-6767
▁ses	-6768
▁top	-6769
7001,	-6770
entic	-6771
espon	-6772
loads	-6773
opies	-6774
stall	-6775
▁deta	-6776
▁imag	-6777
▁miss	-6778
▁orig	-6779
▁prop	-6780
▁sand	-6781
▁thre	-6782
▁webc	-6783
169.25	-6784
4-0160	-6785
9.0-10	-6786
aborat	-6787
ackets	-6788
aiming	-6789
aintex	-6790
alizes	-6791
amages	-6792
amines	-6793
amples	-6794
anizes	-6795
anning	-6796
ansact	-6797
apidly	-6798
appear	-6799
-5	-6800
0?	-6801
30	-6802
33	-6803
An	-6804
BI	-6805
CR	-6806
DB	-6807
DT	-6808
Im	-6809
No	-6810
OA	-6811
PH	-6812
Qu	-6813
Sc	-6814
Th	-6815
XD	-6816
bi	-6817
ck	-6818
ea	-6819
eh	-6820
eq	-6821
fo	-6822
fu	-6823
gh	-6824
ia	-6825
kj	-6826
ll	-6827
mi	-6828
mu	-6829
nr	-6830
pu	-6831
wi	-6832
yo	-6833
ze	-6834
Cer	-6835
Con	-6836
Res	-6837
ais	-6838
aly	-6839
col	-6840
cor	-6841
ecy	-6842
enV	-6843
equ	-6844
esn	-6845
gth	-6846
iar	-6847
ibr	-6848
jum	-6849
lac	-6850
men	-6851
odh	-6852
oic	-6853
onc	-6854
orc	-6855
poo	-6856
rac	-6857
rin	-6858
usc	-6859
▁Qu	-6860
▁Sw	-6861
amic	-6862
ders	-6863
eter	-6864
iona	-6865
ital	-6866
odul	-6867
omat	-6868
qual	-6869
unre	-6870
vate	-6871
▁Cod	-6872
▁SAS	-6873
▁mor	-6874
▁rew	-6875
cessi	-6876
dated	-6877
entif	-6878
nding	-6879
▁Dict	-6880
▁Ghid	-6881
▁valu	-6882
aramet	-6883
arding	-6884
arious	-6885
armful	-6886
artext	-6887
ashcat	-6888
asures	-6889
ategic	-6890
atings	-6891
aximiz	-6892
aximum	-6893
boxing	-6894
broken	-6895
caping	-6896
ccessf	-6897
change	-6898
cholog	-6899
Ag	-6900
Br	-6901
CT	-6902
Cu	-6903
Ev	-6904
GD	-6905
HO	-6906
Nm	-6907
Ou	-6908
Si	-6909
Sm	-6910
St	-6911
Ta	-6912
UN	-6913
VE	-6914
VS	-6915
bu	-6916
cu	-6917
dr	-6918
hi	-6919
hr	-6920
ja	-6921
nb	-6922
ni	-6923
nj	-6924
oo	-6925
rd	-6926
sr	-6927
tl	-6928
zi	-6929
▁9	-6930
▁i	-6931
Dat	-6932
Dis	-6933
Has	-6934
Lin	-6935
ODL	-6936
amb	-6937
ani	-6938
cle	-6939
dra	-6940
eci	-6941
esc	-6942
gis	-6943
lec	-6944
onl	-6945
que	-6946
ret	-6947
ssu	-6948
tod	-6949
xes	-6950
zon	-6951
▁PT	-6952
cons	-6953
erer	-6954
lion	-6955
mend	-6956
naly	-6957
nter	-6958
onen	-6959
rent	-6960
sive	-6961
sset	-6962
unds	-6963
ying	-6964
▁Ass	-6965
▁Piv	-6966
▁dep	-6967
▁dur	-6968
▁mil	-6969
▁sta	-6970
aking	-6971
ature	-6972
etwor	-6973
igate	-6974
keyst	-6975
terac	-6976
uties	-6977
▁Uplo	-6978
▁coor	-6979
▁emph	-6980
▁prov	-6981
▁rese	-6982
▁thes	-6983
assify	-6984
cessor	-6985
cluded	-6986
curity	-6987
dation	-6988
dition	-6989
dlists	-6990
eaders	-6991
ealing	-6992
eaming	-6993
ecific	-6994
ecuted	-6995
edback	-6996
edings	-6997
edures	-6998
egistr	-6999
0)	-7000
0-	-7001
Du	-7002
Ea	-7003
MT	-7004
MZ	-7005
Ma	-7006
SY	-7007
Sp	-7008
Te	-7009
VA	-7010
WT	-7011
bl	-7012
cc	-7013
dy	-7014
ee	-7015
hl	-7016
hy	-7017
lf	-7018
ml	-7019
ti	-7020
to	-7021
tv	-7022
xp	-7023
Fre	-7024
Hon	-7025
Hor	-7026
Mis	-7027
Por	-7028
Set	-7029
alB	-7030
aps	-7031
bor	-7032
edd	-7033
enh	-7034
icr	-7035
nen	-7036
nlo	-7037
tro	-7038
uer	-7039
une	-7040
▁DL	-7041
▁Mo	-7042
▁mi	-7043
▁ri	-7044
▁sa	-7045
▁tu	-7046
aign	-7047
esen	-7048
gard	-7049
ifit	-7050
ilen	-7051
ison	-7052
itab	-7053
ndon	-7054
sers	-7055
yers	-7056
zing	-7057
▁Lan	-7058
▁Sam	-7059
▁bes	-7060
▁cur	-7061
▁doc	-7062
▁fas	-7063
▁fro	-7064
▁ran	-7065
▁sin	-7066
▁tak	-7067
arget	-7068
cessf	-7069
enial	-7070
ferer	-7071
gling	-7072
isass	-7073
lated	-7074
owled	-7075
urely	-7076
▁PAST	-7077
▁POOD	-7078
▁Steg	-7079
ecured	-7080
egrity	-7081
elcome	-7082
elists	-7083
elizes	-7084
eloped	-7085
emands	-7086
embler	-7087
emicol	-7088
emonst	-7089
eneric	-7090
ensics	-7091
entals	-7092
entire	-7093
eraded	-7094
erbero	-7095
erging	-7096
ernels	-7097
ersary	-7098
ership	-7099
Af	-7100
Co	-7101
DM	-7102
Fa	-7103
Fs	-7104
In	-7105
It	-7106
Vi	-7107
ZA	-7108
da	-7109
di	-7110
eW	-7111
fe	-7112
hu	-7113
kp	-7114
ls	-7115
lw	-7116
mw	-7117
oe	-7118
pi	-7119
rL	-7120
sE	-7121
si	-7122
sq	-7123
uf	-7124
Cro	-7125
Cur	-7126
Dan	-7127
Pow	-7128
ali	-7129
ana	-7130
arl	-7131
bil	-7132
egm	-7133
enS	-7134
ene	-7135
fen	-7136
hey	-7137
hil	-7138
let	-7139
lit	-7140
loa	-7141
man	-7142
ryH	-7143
tel	-7144
tit	-7145
vic	-7146
vil	-7147
xec	-7148
▁He	-7149
▁IA	-7150
▁ax	-7151
▁fr	-7152
▁ra	-7153
▁sl	-7154
alic	-7155
alis	-7156
ayed	-7157
enes	-7158
etyp	-7159
itho	-7160
itic	-7161
lent	-7162
mugg	-7163
ndom	-7164
omiz	-7165
onse	-7166
rest	-7167
▁Hyd	-7168
▁Mem	-7169
▁Mis	-7170
▁Win	-7171
▁axf	-7172
▁lan	-7173
▁sco	-7174
ental	-7175
onate	-7176
orage	-7177
orith	-7178
▁SHOD	-7179
▁stab	-7180
ecutab	-7181
ervice	-7182
essing	-7183
essons	-7184
estric	-7185
etfind	-7186
fected	-7187
ferenc	-7188
ferent	-7189
ffects	-7190
figure	-7191
flowed	-7192
forman	-7193
gating	-7194
gation	-7195
gorith	-7196
graded	-7197
grades	-7198
hausts	-7199
2-	-7200
27	-7201
Ad	-7202
DS	-7203
Hi	-7204
JS	-7205
Ja	-7206
PU	-7207
Pe	-7208
Re	-7209
ST	-7210
TA	-7211
Up	-7212
aS	-7213
gs	-7214
gt	-7215
hc	-7216
ho	-7217
ju	-7218
mf	-7219
mo	-7220
ne	-7221
oa	-7222
rg	-7223
rs	-7224
ta	-7225
tw	-7226
wa	-7227
wo	-7228
ws	-7229
xe	-7230
ye	-7231
yl	-7232
za	-7233
▁.	-7234
Hig	-7235
Pen	-7236
Pol	-7237
Sal	-7238
Ser	-7239
Tro	-7240
aks	-7241
alo	-7242
arc	-7243
ask	-7244
atc	-7245
bed	-7246
bet	-7247
bre	-7248
cit	-7249
egy	-7250
erL	-7251
erS	-7252
ilg	-7253
kin	-7254
lin	-7255
mer	-7256
omi	-7257
ops	-7258
vit	-7259
zat	-7260
▁Ra	-7261
▁ps	-7262
ackt	-7263
anel	-7264
eliv	-7265
esil	-7266
iled	-7267
nent	-7268
roac	-7269
sess	-7270
ster	-7271
▁Bad	-7272
▁deg	-7273
▁imm	-7274
▁pen	-7275
ainer	-7276
ample	-7277
ediat	-7278
eserv	-7279
exity	-7280
iates	-7281
ommen	-7282
verly	-7283
▁Tact	-7284
▁Tail	-7285
▁phys	-7286
▁wild	-7287
entest	-7288
gently	-7289
havior	-7290
helper	-7291
hering	-7292
hieves	-7293
iables	-7294
iagram	-7295
iating	-7296
ibrary	-7297
icense	-7298
idance	-7299
.1	-7300
14	-7301
28	-7302
AR	-7303
Ca	-7304
Cr	-7305
De	-7306
Di	-7307
EN	-7308
NB	-7309
NI	-7310
SF	-7311
SU	-7312
XS	-7313
bm	-7314
ca	-7315
ci	-7316
dg	-7317
eb	-7318
fi	-7319
fr	-7320
gn	-7321
je	-7322
jo	-7323
pe	-7324
rF	-7325
rJ	-7326
rf	-7327
rt	-7328
rv	-7329
sd	-7330
sf	-7331
sh	-7332
zz	-7333
End	-7334
arg	-7335
cro	-7336
elm	-7337
erV	-7338
esi	-7339
gin	-7340
gro	-7341
igg	-7342
ini	-7343
inm	-7344
ipt	-7345
kpo	-7346
ror	-7347
rot	-7348
upt	-7349
▁NT	-7350
▁RD	-7351
▁WM	-7352
atin	-7353
eing	-7354
entu	-7355
erat	-7356
imed	-7357
inst	-7358
ocur	-7359
real	-7360
roug	-7361
ssig	-7362
trud	-7363
unin	-7364
unqu	-7365
uplo	-7366
vern	-7367
▁beh	-7368
▁ina	-7369
▁lef	-7370
▁mac	-7371
▁psy	-7372
agram	-7373
aimed	-7374
alyst	-7375
arker	-7376
ealth	-7377
gates	-7378
olean	-7379
tence	-7380
viden	-7381
▁mapp	-7382
annels	-7383
enting	-7384
idents	-7385
iewing	-7386
ifecyc	-7387
ifican	-7388
ifying	-7389
igence	-7390
iginal	-7391
imizes	-7392
ingerp	-7393
inning	-7394
intend	-7395
inters	-7396
ippets	-7397
ipping	-7398
iscard	-7399
./	-7400
21	-7401
At	-7402
Ch	-7403
DC	-7404
Ge	-7405
Gr	-7406
Ke	-7407
NV	-7408
OB	-7409
Op	-7410
Pa	-7411
SV	-7412
So	-7413
Su	-7414
TE	-7415
US	-7416
bj	-7417
gg	-7418
gi	-7419
ix	-7420
nk	-7421
nw	-7422
sm	-7423
te	-7424
tp	-7425
yD	-7426
Gre	-7427
ITR	-7428
Lab	-7429
Sil	-7430
Ter	-7431
ato	-7432
ees	-7433
esy	-7434
hor	-7435
inR	-7436
inp	-7437
len	-7438
lev	-7439
mel	-7440
mic	-7441
mid	-7442
mot	-7443
pan	-7444
tay	-7445
ted	-7446
tin	-7447
wan	-7448
wer	-7449
▁AX	-7450
▁Ri	-7451
▁WA	-7452
▁go	-7453
atab	-7454
ecti	-7455
entv	-7456
hent	-7457
hort	-7458
idan	-7459
oors	-7460
ream	-7461
rict	-7462
suff	-7463
trus	-7464
unus	-7465
uter	-7466
▁Mob	-7467
▁byp	-7468
▁clo	-7469
alfor	-7470
assif	-7471
assiv	-7472
dized	-7473
entes	-7474
eries	-7475
evers	-7476
fense	-7477
geted	-7478
ially	-7479
ontin	-7480
tical	-7481
▁Rand	-7482
▁clon	-7483
▁remo	-7484
establ	-7485
istrat	-7486
itives	-7487
itized	-7488
itizes	-7489
laying	-7490
lected	-7491
lement	-7492
llyDbg	-7493
logger	-7494
lusion	-7495
mation	-7496
mediat	-7497
mplify	-7498
native	-7499
1,	-7500
1?	-7501
8?	-7502
DA	-7503
DE	-7504
EL	-7505
FT	-7506
Fr	-7507
Fu	-7508
GU	-7509
Gu	-7510
IE	-7511
Ji	-7512
Ki	-7513
LA	-7514
Lo	-7515
Mo	-7516
Mv	-7517
Ns	-7518
PO	-7519
Py	-7520
UA	-7521
Un	-7522
Ve	-7523
WA	-7524
Yo	-7525
ai	-7526
bc	-7527
co	-7528
db	-7529
eH	-7530
hQ	-7531
nv	-7532
oh	-7533
oy	-7534
▁4	-7535
Tec	-7536
Win	-7537
cre	-7538
eor	-7539
han	-7540
hec	-7541
iph	-7542
itt	-7543
mat	-7544
mil	-7545
pil	-7546
rar	-7547
row	-7548
sar	-7549
wed	-7550
▁AC	-7551
▁UD	-7552
Hack	-7553
ackT	-7554
amag	-7555
cest	-7556
emat	-7557
emed	-7558
eren	-7559
eted	-7560
gets	-7561
iers	-7562
iler	-7563
imil	-7564
inde	-7565
ndre	-7566
ompo	-7567
orun	-7568
tend	-7569
▁Act	-7570
▁bat	-7571
▁mat	-7572
▁mes	-7573
▁san	-7574
▁tac	-7575
aform	-7576
echan	-7577
entat	-7578
erate	-7579
essur	-7580
ework	-7581
ioral	-7582
iring	-7583
ument	-7584
▁cond	-7585
▁hack	-7586
▁tric	-7587
▁wast	-7588
ectors	-7589
nderst	-7590
necess	-7591
nected	-7592
ngular	-7593
ociate	-7594
oiding	-7595
olders	-7596
ollect	-7597
olving	-7598
omains	-7599
-4	-7600
0,	-7601
06	-7602
11	-7603
19	-7604
3.	-7605
4-	-7606
43	-7607
5)	-7608
54	-7609
69	-7610
9.	-7611
CL	-7612
Ce	-7613
Cs	-7614
Dr	-7615
IM	-7616
KR	-7617
Of	-7618
SC	-7619
UR	-7620
Us	-7621
Wa	-7622
dm	-7623
ht	-7624
iF	-7625
ko	-7626
mb	-7627
rl	-7628
rr	-7629
ui	-7630
ym	-7631
Bur	-7632
Fas	-7633
Net	-7634
Wit	-7635
ads	-7636
din	-7637
etc	-7638
hre	-7639
lop	-7640
mal	-7641
ndl	-7642
odH	-7643
rit	-7644
xit	-7645
▁LF	-7646
▁Nm	-7647
▁PI	-7648
▁RO	-7649
▁TC	-7650
▁Us	-7651
▁bc	-7652
Pent	-7653
aram	-7654
arse	-7655
ctor	-7656
igen	-7657
itiz	-7658
ivir	-7659
prom	-7660
sern	-7661
user	-7662
ween	-7663
▁Bas	-7664
▁Sud	-7665
▁esc	-7666
▁kil	-7667
▁por	-7668
▁tes	-7669
ecess	-7670
escal	-7671
ripts	-7672
using	-7673
vates	-7674
ventu	-7675
▁acce	-7676
▁chal	-7677
▁inde	-7678
▁prec	-7679
fident	-7680
ictims	-7681
omates	-7682
omized	-7683
omizes	-7684
ommand	-7685
ommend	-7686
onally	-7687
onates	-7688
oncept	-7689
oneypo	-7690
onment	-7691
onnect	-7692
ontain	-7693
ontent	-7694
ontrol	-7695
oolean	-7696
opping	-7697
opular	-7698
orient	-7699
-1	-7700
6-	-7701
7.	-7702
AA	-7703
As	-7704
Au	-7705
BA	-7706
Ba	-7707
Bc	-7708
Bi	-7709
By	-7710
CM	-7711
DG	-7712
EA	-7713
ED	-7714
Et	-7715
He	-7716
IC	-7717
LB	-7718
Or	-7719
PE	-7720
RO	-7721
SP	-7722
TH	-7723
TM	-7724
WE	-7725
WK	-7726
bd	-7727
dF	-7728
de	-7729
fa	-7730
kT	-7731
lB	-7732
nc	-7733
nt	-7734
tf	-7735
xt	-7736
zy	-7737
ANs	-7738
Dic	-7739
Zer	-7740
aig	-7741
ait	-7742
gen	-7743
ifi	-7744
ito	-7745
ivi	-7746
nam	-7747
otP	-7748
pat	-7749
sec	-7750
son	-7751
tec	-7752
tol	-7753
tor	-7754
ved	-7755
zer	-7756
▁My	-7757
Zero	-7758
agem	-7759
anag	-7760
entr	-7761
erac	-7762
pack	-7763
pile	-7764
reak	-7765
wing	-7766
▁Blo	-7767
▁Mic	-7768
▁eac	-7769
▁sle	-7770
▁ste	-7771
▁unn	-7772
empts	-7773
icate	-7774
iming	-7775
isten	-7776
kedIn	-7777
ption	-7778
rases	-7779
▁clip	-7780
▁evas	-7781
▁phas	-7782
▁surv	-7783
▁vish	-7784
anisms	-7785
otnets	-7786
ounter	-7787
parent	-7788
pdated	-7789
pdates	-7790
pering	-7791
plates	-7792
ploads	-7793
ployee	-7794
pology	-7795
porary	-7796
posure	-7797
quency	-7798
raform	-7799
,0	-7800
GT	-7801
If	-7802
La	-7803
MD	-7804
Ms	-7805
Mu	-7806
OL	-7807
OO	-7808
PD	-7809
PG	-7810
RU	-7811
SA	-7812
WM	-7813
WP	-7814
bf	-7815
dI	-7816
dS	-7817
lk	-7818
nS	-7819
nh	-7820
nx	-7821
oD	-7822
tP	-7823
tz	-7824
yH	-7825
yt	-7826
Can	-7827
Cry	-7828
Jin	-7829
Kub	-7830
Leg	-7831
acl	-7832
den	-7833
dle	-7834
gel	-7835
hro	-7836
ida	-7837
ien	-7838
inj	-7839
ipp	-7840
las	-7841
nom	-7842
oor	-7843
ren	-7844
req	-7845
roi	-7846
rou	-7847
rud	-7848
▁NB	-7849
▁SY	-7850
atil	-7851
enSS	-7852
inim	-7853
issu	-7854
nalB	-7855
ndar	-7856
onth	-7857
ssib	-7858
urat	-7859
very	-7860
▁SSI	-7861
▁Tem	-7862
▁cas	-7863
▁exf	-7864
▁piv	-7865
▁seg	-7866
ayers	-7867
cceed	-7868
ersec	-7869
hreat	-7870
jects	-7871
lists	-7872
older	-7873
omate	-7874
onent	-7875
ouble	-7876
rodum	-7877
rypts	-7878
uters	-7879
uting	-7880
▁reso	-7881
▁soft	-7882
chestr	-7883
closed	-7884
comput	-7885
coring	-7886
ranted	-7887
rapers	-7888
raries	-7889
rating	-7890
raudul	-7891
reases	-7892
repanc	-7893
resent	-7894
reters	-7895
rofile	-7896
rojans	-7897
rosoft	-7898
rougho	-7899
Av	-7900
DN	-7901
EB	-7902
NO	-7903
Se	-7904
Sw	-7905
Tr	-7906
UE	-7907
Vo	-7908
Wh	-7909
dc	-7910
dj	-7911
eS	-7912
ew	-7913
hm	-7914
ih	-7915
ka	-7916
▁	-7917
e	-7918
t	-7919
s	-7920
i	-7921
n	-7922
a	-7923
r	-7924
o	-7925
c	-7926
l	-7927
d	-7928
u	-7929
g	-7930
p	-7931
h	-7932
m	-7933
f	-7934
y	-7935
:	-7936
.	-7937
,	-7938
v	-7939
b	-7940
A	-7941
k	-7942
w	-7943
W	-7944
U	-7945
S	-7946
?	-7947
x	-7948
I	-7949
T	-7950
P	-7951
-	-7952
C	-7953
L	-7954
D	-7955
z	-7956
R	-7957
j	-7958
M	-7959
q	-7960
H	-7961
O	-7962
N	-7963
E	-7964
B	-7965
F	-7966
X	-7967
V	-7968
'	-7969
Q	-7970
2	-7971
0	-7972
G	-7973
1	-7974
J	-7975
K	-7976
(	-7977
)	-7978
/	-7979
4	-7980
3	-7981
Y	-7982
!	-7983
6	-7984
5	-7985
Z	-7986
&	-7987
7	-7988
9	-7989
_	-7990
"	-7991
8	-7992
+	-7993
=	-7994
@	-7995
